{
  "version": "1.0",
  "truncation": null,
  "padding": null,
  "added_tokens": [],
  "normalizer": null,
  "pre_tokenizer": {
    "type": "ByteLevel",
    "add_prefix_space": true,
    "trim_offsets": true,
    "use_regex": true
  },
  "post_processor": null,
  "decoder": {
    "type": "ByteLevel",
    "add_prefix_space": true,
    "trim_offsets": true,
    "use_regex": true
  },
  "model": {
    "type": "BPE",
    "dropout": null,
    "unk_token": null,
    "continuing_subword_prefix": null,
    "end_of_word_suffix": null,
    "fuse_unk": false,
    "byte_fallback": false,
    "ignore_merges": false,
    "vocab": {
      "!": 0,
      "&": 1,
      "'": 2,
      "(": 3,
      ")": 4,
      "*": 5,
      ",": 6,
      "-": 7,
      ".": 8,
      "0": 9,
      "1": 10,
      "2": 11,
      "3": 12,
      "4": 13,
      "5": 14,
      "6": 15,
      "7": 16,
      "8": 17,
      "9": 18,
      ":": 19,
      ";": 20,
      "?": 21,
      "A": 22,
      "B": 23,
      "C": 24,
      "D": 25,
      "E": 26,
      "F": 27,
      "G": 28,
      "H": 29,
      "I": 30,
      "J": 31,
      "K": 32,
      "L": 33,
      "M": 34,
      "N": 35,
      "O": 36,
      "P": 37,
      "Q": 38,
      "R": 39,
      "S": 40,
      "T": 41,
      "U": 42,
      "V": 43,
      "W": 44,
      "X": 45,
      "Y": 46,
      "Z": 47,
      "[": 48,
      "]": 49,
      "_": 50,
      "a": 51,
      "b": 52,
      "c": 53,
      "d": 54,
      "e": 55,
      "f": 56,
      "g": 57,
      "h": 58,
      "i": 59,
      "j": 60,
      "k": 61,
      "l": 62,
      "m": 63,
      "n": 64,
      "o": 65,
      "p": 66,
      "q": 67,
      "r": 68,
      "s": 69,
      "t": 70,
      "u": 71,
      "v": 72,
      "w": 73,
      "x": 74,
      "y": 75,
      "z": 76,
      "¢": 77,
      "¦": 78,
      "§": 79,
      "¨": 80,
      "©": 81,
      "ª": 82,
      "«": 83,
      "®": 84,
      "Ã": 85,
      "Å": 86,
      "â": 87,
      "ĉ": 88,
      "Ċ": 89,
      "Ġ": 90,
      "Ģ": 91,
      "Ĩ": 92,
      "ĩ": 93,
      "ī": 94,
      "ĵ": 95,
      "Ķ": 96,
      "ĺ": 97,
      "Ļ": 98,
      "ľ": 99,
      "Ŀ": 100,
      "ł": 101,
      "Ġt": 102,
      "he": 103,
      "Ġa": 104,
      "ou": 105,
      "Ġs": 106,
      "in": 107,
      "Ġm": 108,
      "Ġw": 109,
      "re": 110,
      "ha": 111,
      "nd": 112,
      "ĠĊ": 113,
      "Ġthe": 114,
      "Ġb": 115,
      "is": 116,
      "er": 117,
      "or": 118,
      "âĢ": 119,
      "ĠI": 120,
      "ll": 121,
      "Ġf": 122,
      "on": 123,
      "it": 124,
      "âĢĻ": 125,
      "es": 126,
      "Ġd": 127,
      "Ġc": 128,
      "Ġl": 129,
      "Ġo": 130,
      "en": 131,
      "ĠT": 132,
      "Ġn": 133,
      "Ġy": 134,
      "Ġth": 135,
      "ar": 136,
      "Ġh": 137,
      "ĠA": 138,
      "Ġp": 139,
      "Ġyou": 140,
      "Ġto": 141,
      "Ġand": 142,
      "hat": 143,
      "Ġof": 144,
      "Ġhe": 145,
      "ot": 146,
      "an": 147,
      "ve": 148,
      "st": 149,
      "ing": 150,
      "ow": 151,
      "om": 152,
      "Ġg": 153,
      "at": 154,
      "ed": 155,
      "ĠW": 156,
      "Ġin": 157,
      "Ġbe": 158,
      "ĠS": 159,
      "se": 160,
      "ce": 161,
      "Ġha": 162,
      "et": 163,
      "Ġmy": 164,
      "ld": 165,
      "ay": 166,
      "le": 167,
      "ĠH": 168,
      "ĠĠ": 169,
      "ĠB": 170,
      "ut": 171,
      "ir": 172,
      "ith": 173,
      "im": 174,
      "Ġme": 175,
      "ĠC": 176,
      "ch": 177,
      "gh": 178,
      "Ġnot": 179,
      "ĠM": 180,
      "Ġis": 181,
      "ill": 182,
      "Ġe": 183,
      "Ġthat": 184,
      "ke": 185,
      "Ġfor": 186,
      "ĠAnd": 187,
      "oo": 188,
      "our": 189,
      "Ġwith": 190,
      "Ġu": 191,
      "ĠP": 192,
      "ĠF": 193,
      "Ġwe": 194,
      "ad": 195,
      "ĠO": 196,
      "ter": 197,
      "ĠThe": 198,
      "Ġit": 199,
      "as": 200,
      "ĠL": 201,
      "ri": 202,
      "al": 203,
      "ent": 204,
      "Ġhis": 205,
      "Ġyour": 206,
      "her": 207,
      "Ġst": 208,
      "id": 209,
      "ra": 210,
      "Ġthou": 211,
      "ĠE": 212,
      "ght": 213,
      "Ġhim": 214,
      "Ġre": 215,
      "ly": 216,
      "Ġthis": 217,
      "Ġli": 218,
      "Ġhave": 219,
      "us": 220,
      "ome": 221,
      "ord": 222,
      "Ġon": 223,
      "ĠD": 224,
      "ĠG": 225,
      "Ġk": 226,
      "Ġso": 227,
      "ur": 228,
      "Ġas": 229,
      "ver": 230,
      "ore": 231,
      "ould": 232,
      "ain": 233,
      "ro": 234,
      "Ġde": 235,
      "ĠN": 236,
      "Ġdo": 237,
      "hi": 238,
      "Ġwill": 239,
      "ck": 240,
      "am": 241,
      "ood": 242,
      "EN": 243,
      "Ġsha": 244,
      "ess": 245,
      "Ġse": 246,
      "Ġher": 247,
      "ion": 248,
      "est": 249,
      "US": 250,
      "Ġ[": 251,
      "Ġlo": 252,
      "nt": 253,
      "ge": 254,
      "ER": 255,
      "ea": 256,
      "Ġ[_": 257,
      "Ġthy": 258,
      "ĠR": 259,
      "Ġno": 260,
      "ĠY": 261,
      "Ġsu": 262,
      "IN": 263,
      "Ġan": 264,
      "and": 265,
      "ĠTh": 266,
      "Ġall": 267,
      "il": 268,
      "Ġbut": 269,
      "th": 270,
      "AR": 271,
      "ru": 272,
      "ake": 273,
      "._": 274,
      "ĠK": 275,
      "Ġfa": 276,
      "if": 277,
      "Ġsp": 278,
      "AN": 279,
      "ell": 280,
      "ĠTo": 281,
      "ct": 282,
      "ear": 283,
      "Ġkn": 284,
      "ĠĠĠĠ": 285,
      "ight": 286,
      "._]": 287,
      "Ġshall": 288,
      "Ġthee": 289,
      "Ġv": 290,
      "ho": 291,
      "Ġare": 292,
      "ast": 293,
      "rom": 294,
      "ES": 295,
      "ĠThat": 296,
      "han": 297,
      "ard": 298,
      "art": 299,
      "Ġby": 300,
      "Ġsh": 301,
      "ON": 302,
      "Ġour": 303,
      "Ġne": 304,
      "ant": 305,
      "Ġman": 306,
      "ine": 307,
      "end": 308,
      "ĠâĢĻ": 309,
      "ĠEn": 310,
      "ĠBut": 311,
      "ĠHe": 312,
      "Ġat": 313,
      "ous": 314,
      "qu": 315,
      "Ġup": 316,
      "Ġam": 317,
      "Ġcom": 318,
      "res": 319,
      "Ġmu": 320,
      "ĠWhat": 321,
      "sel": 322,
      "out": 323,
      "ST": 324,
      "one": 325,
      "ie": 326,
      "Ġshe": 327,
      "ind": 328,
      "Ġlord": 329,
      "em": 330,
      "Ġgood": 331,
      "Ġwhe": 332,
      "Ġgo": 333,
      "Ġcon": 334,
      "ive": 335,
      "hich": 336,
      "ers": 337,
      "ong": 338,
      "ul": 339,
      "Ġfrom": 340,
      "âĢĶ": 341,
      "ic": 342,
      "Ġlove": 343,
      "ry": 344,
      "OR": 345,
      "Ġwhat": 346,
      "oth": 347,
      "ven": 348,
      "row": 349,
      "Ġbl": 350,
      "ble": 351,
      "Ġthem": 352,
      "Ġwas": 353,
      "Ġsw": 354,
      "Ġknow": 355,
      "Ġwould": 356,
      "ĠEnter": 357,
      "Ġmore": 358,
      "ĠFor": 359,
      "Ġtheir": 360,
      "pp": 361,
      "au": 362,
      "IO": 363,
      "Ġcan": 364,
      "Ġpr": 365,
      "ol": 366,
      "ath": 367,
      "fe": 368,
      "ep": 369,
      "Ġnow": 370,
      "Ġthey": 371,
      "ure": 372,
      "Ġthere": 373,
      "ost": 374,
      "Ġhat": 375,
      "all": 376,
      "Ġwor": 377,
      "Ex": 378,
      "Ġor": 379,
      "Ġthan": 380,
      "Ġar": 381,
      "self": 382,
      "el": 383,
      "AL": 384,
      "ate": 385,
      "Ġsir": 386,
      "Ġus": 387,
      "Ġif": 388,
      "ink": 389,
      "Ġsay": 390,
      "ame": 391,
      "ĠWhe": 392,
      "Ġlet": 393,
      "Ġhere": 394,
      "um": 395,
      "other": 396,
      "ĠJ": 397,
      "ue": 398,
      "Ġpl": 399,
      "ĠYou": 400,
      "reat": 401,
      "ĠMy": 402,
      "are": 403,
      "fore": 404,
      "ves": 405,
      "ak": 406,
      "ort": 407,
      "OL": 408,
      "ĠIf": 409,
      "ET": 410,
      "hy": 411,
      "Ġlike": 412,
      "ook": 413,
      "ish": 414,
      "Ġthen": 415,
      "Ġwell": 416,
      "ound": 417,
      "Ġone": 418,
      "Ġhath": 419,
      "ING": 420,
      "Ġsee": 421,
      "ather": 422,
      "ig": 423,
      "Ġj": 424,
      "od": 425,
      "Ġun": 426,
      "Ġshould": 427,
      "un": 428,
      "Ġdid": 429,
      "Ġr": 430,
      "EL": 431,
      "ĠAs": 432,
      "IC": 433,
      "Ġmay": 434,
      "Ġcome": 435,
      "Ġen": 436,
      "ĠV": 437,
      "Ġbr": 438,
      "Ġdis": 439,
      "Ġmake": 440,
      "ĠâĢ": 441,
      "ance": 442,
      "gain": 443,
      "Ġmad": 444,
      "Ġqu": 445,
      "Ġho": 446,
      "Ġout": 447,
      "Ġupon": 448,
      "Ġwhich": 449,
      "ice": 450,
      "Ġsa": 451,
      "Ġmust": 452,
      "Ġwere": 453,
      "very": 454,
      "eak": 455,
      "red": 456,
      "ity": 457,
      "pe": 458,
      "IR": 459,
      "Ġhad": 460,
      "ime": 461,
      "Ġtoo": 462,
      "IUS": 463,
      "ĠĠĠ": 464,
      "Ġpro": 465,
      "ies": 466,
      "Ġtru": 467,
      "pt": 468,
      "ence": 469,
      "Ġheart": 470,
      "Ġey": 471,
      "Ġpo": 472,
      "Ġwhen": 473,
      "Ġsuch": 474,
      "Ġhon": 475,
      "ĠKING": 476,
      "ĠBe": 477,
      "Ġhand": 478,
      "orn": 479,
      "unt": 480,
      "ĠIn": 481,
      "Ġex": 482,
      "ff": 483,
      "LO": 484,
      "ond": 485,
      "ther": 486,
      "ist": 487,
      "ĠThou": 488,
      "Ġal": 489,
      "ĠSo": 490,
      "Ġagain": 491,
      "ick": 492,
      "ĠKing": 493,
      "ĠThis": 494,
      "ĠHow": 495,
      "Ġyet": 496,
      "ide": 497,
      "ness": 498,
      "ass": 499,
      "UC": 500,
      "ĠWith": 501,
      "ave": 502,
      "Ġwho": 503,
      "ĠWhy": 504,
      "wn": 505,
      "ĠWe": 506,
      "Ġoff": 507,
      "ise": 508,
      "Ġspeak": 509,
      "IA": 510,
      "AT": 511,
      "ire": 512,
      "age": 513,
      "Ġsome": 514,
      "ĠâĢľ": 515,
      "Ġro": 516,
      "urn": 517,
      "ĠNo": 518,
      "eet": 519,
      "ings": 520,
      "Ġfri": 521,
      "Ġthink": 522,
      "io": 523,
      "Ġthese": 524,
      "ack": 525,
      "ose": 526,
      "Ġmine": 527,
      "Ġfl": 528,
      "ady": 529,
      "Ġab": 530,
      "oy": 531,
      "ARD": 532,
      "Ġfo": 533,
      "ng": 534,
      "own": 535,
      "Ġfather": 536,
      "Ġgreat": 537,
      "AM": 538,
      "ĠU": 539,
      "Ġhea": 540,
      "Ġcha": 541,
      "Ġhow": 542,
      "ĠIt": 543,
      "Ġtime": 544,
      "eunt": 545,
      "Ġtw": 546,
      "Ġgive": 547,
      "ful": 548,
      "ress": 549,
      "ince": 550,
      "ĠWho": 551,
      "IL": 552,
      "ĠOf": 553,
      "ag": 554,
      "de": 555,
      "ĠQ": 556,
      "ĠIs": 557,
      "entle": 558,
      "ESS": 559,
      "Ġtake": 560,
      "Ġgra": 561,
      "Ġfriend": 562,
      "ust": 563,
      "ci": 564,
      "Ġri": 565,
      "ĠThere": 566,
      "Ġmuch": 567,
      "Ġwhere": 568,
      "os": 569,
      "RO": 570,
      "way": 571,
      "Exeunt": 572,
      "Ġmar": 573,
      "ber": 574,
      "Ġday": 575,
      "ation": 576,
      "Ġmost": 577,
      "âĢĿ": 578,
      "ĠĠĠĠĠĠĠĠ": 579,
      "Ġtell": 580,
      "Ġpart": 581,
      "Ġbet": 582,
      "ENE": 583,
      "aster": 584,
      "ĠLet": 585,
      "Ġdes": 586,
      "Ġbre": 587,
      "Ġnever": 588,
      "Exit": 589,
      "ace": 590,
      "Ġle": 591,
      "Ġlea": 592,
      "Ġhear": 593,
      "ĠWhich": 594,
      "ree": 595,
      "Ġlook": 596,
      "Ġmen": 597,
      "ull": 598,
      "ĠCome": 599,
      "ĠAN": 600,
      "Ġother": 601,
      "Ġart": 602,
      "li": 603,
      "ough": 604,
      "ither": 605,
      "ap": 606,
      "Ġblood": 607,
      "ite": 608,
      "Ġear": 609,
      "ign": 610,
      "Ġlife": 611,
      "Ġdeath": 612,
      "Ġword": 613,
      "Ġdoth": 614,
      "ount": 615,
      "Ġhonour": 616,
      "ene": 617,
      "Ġfair": 618,
      "ment": 619,
      "oul": 620,
      "ĠWhen": 621,
      "ĠWhere": 622,
      "ces": 623,
      "Ġwr": 624,
      "ĠBy": 625,
      "igh": 626,
      "ĠSc": 627,
      "che": 628,
      "ĠOr": 629,
      "erv": 630,
      "ĠSC": 631,
      "ĠSir": 632,
      "Ġgentle": 633,
      "LE": 634,
      "Ġfear": 635,
      "Ġson": 636,
      "Ġint": 637,
      "ase": 638,
      "Ġtr": 639,
      "ius": 640,
      "ward": 641,
      "Ġsc": 642,
      "ans": 643,
      "ĠLord": 644,
      "Ġple": 645,
      "Ġany": 646,
      "ool": 647,
      "Ġcl": 648,
      "Ġsweet": 649,
      "Ġown": 650,
      "Ġper": 651,
      "ĠNow": 652,
      "Ġad": 653,
      "Ġcomm": 654,
      "itt": 655,
      "FF": 656,
      "ĠSCENE": 657,
      "not": 658,
      "ove": 659,
      "Ġwar": 660,
      "nder": 661,
      "Ġnight": 662,
      "Ġra": 663,
      "Ġheaven": 664,
      "ĠAn": 665,
      "ĠPr": 666,
      "ouse": 667,
      "ĠGod": 668,
      "Ġmade": 669,
      "Ġcall": 670,
      "hing": 671,
      "tis": 672,
      "ft": 673,
      "land": 674,
      "nce": 675,
      "Ġwh": 676,
      "Ġtrue": 677,
      "Ġeyes": 678,
      "ee": 679,
      "les": 680,
      "ĠII": 681,
      "IT": 682,
      "per": 683,
      "Ġco": 684,
      "Ġvery": 685,
      "rown": 686,
      "llow": 687,
      "augh": 688,
      "ia": 689,
      "Ġke": 690,
      "Ġapp": 691,
      "ĠFIR": 692,
      "ĠFIRST": 693,
      "Ġcannot": 694,
      "uke": 695,
      "ĠMar": 696,
      "Ġhast": 697,
      "Ġaf": 698,
      "Ġpre": 699,
      "Ġworld": 700,
      "ction": 701,
      "orrow": 702,
      "ĠSt": 703,
      "ĠThen": 704,
      "Ġstr": 705,
      "man": 706,
      "Ġpray": 707,
      "ĠScene": 708,
      "Ġbeen": 709,
      "ĠHere": 710,
      "UR": 711,
      "Ġcour": 712,
      "ĠCA": 713,
      "Ġaway": 714,
      "able": 715,
      "Ġbear": 716,
      "ss": 717,
      "Ġim": 718,
      "ĠDo": 719,
      "Ġking": 720,
      "Ġcomp": 721,
      "Tis": 722,
      "Ġway": 723,
      "Ġru": 724,
      "Ġdone": 725,
      "ĠYour": 726,
      "Ġwit": 727,
      "Ġnor": 728,
      "Ġla": 729,
      "ving": 730,
      "Ġtwo": 731,
      "cc": 732,
      ".]": 733,
      "ock": 734,
      "aint": 735,
      "ud": 736,
      "Ġhead": 737,
      "Ġwom": 738,
      "Ġdown": 739,
      "Ġstand": 740,
      "Ġname": 741,
      "ĠAy": 742,
      "Ġarm": 743,
      "Ġever": 744,
      "een": 745,
      "ps": 746,
      "Ġmight": 747,
      "Ġbefore": 748,
      "TH": 749,
      "ower": 750,
      "iss": 751,
      "Ġcont": 752,
      "Ġbrother": 753,
      "PH": 754,
      "ĠShe": 755,
      "Ġpres": 756,
      "ENT": 757,
      "AND": 758,
      "ger": 759,
      "less": 760,
      "Ġold": 761,
      "Ġthought": 762,
      "sw": 763,
      "ian": 764,
      "ks": 765,
      "Ġ_": 766,
      "ife": 767,
      "AC": 768,
      "Ġsl": 769,
      "ears": 770,
      "ty": 771,
      "Ġbeg": 772,
      "ĠDuke": 773,
      "Ġleave": 774,
      "Ġnoble": 775,
      "aughter": 776,
      "Ġlong": 777,
      "ĠSha": 778,
      "ĠANT": 779,
      "ach": 780,
      "ORD": 781,
      "Ġlady": 782,
      "Ġthus": 783,
      "ĠRO": 784,
      "Ġrem": 785,
      "Ġcould": 786,
      "irst": 787,
      "ĠHis": 788,
      "ĠCa": 789,
      "Ġfool": 790,
      "AG": 791,
      "Ġnew": 792,
      "LA": 793,
      "ĠSE": 794,
      "Ġhar": 795,
      "ason": 796,
      "Ġdead": 797,
      "IAN": 798,
      "_.]": 799,
      "rie": 800,
      "Ġcomes": 801,
      "bl": 802,
      "ĠTH": 803,
      "Ġhouse": 804,
      "Ġpur": 805,
      "Ġpoor": 806,
      "ause": 807,
      "ĠAt": 808,
      "Ġshow": 809,
      "Ġlive": 810,
      "ĠQU": 811,
      "Ġbeing": 812,
      "Ġend": 813,
      "Ġbetter": 814,
      "Ġsoul": 815,
      "Ġgl": 816,
      "ds": 817,
      "ors": 818,
      "ĠWell": 819,
      "Ġfind": 820,
      "CE": 821,
      "ple": 822,
      "ĠGo": 823,
      "akes": 824,
      "atter": 825,
      "Ġbest": 826,
      "eth": 827,
      "Ġstill": 828,
      "Ġrep": 829,
      "ious": 830,
      "Ġboth": 831,
      "Ġma": 832,
      "Ġkeep": 833,
      "ew": 834,
      "ert": 835,
      "Ġinto": 836,
      "STA": 837,
      "Ġevery": 838,
      "eace": 839,
      "Ġmer": 840,
      "ĠAl": 841,
      "Ġnothing": 842,
      "tun": 843,
      "uck": 844,
      "ought": 845,
      "nto": 846,
      "ĠMAR": 847,
      "Ġmany": 848,
      "ĠNor": 849,
      "KE": 850,
      "ĠThey": 851,
      "ĠWill": 852,
      "OND": 853,
      "Ġsm": 854,
      "MAN": 855,
      "come": 856,
      "ied": 857,
      "ĠGood": 858,
      "ier": 859,
      "Ġbra": 860,
      "cy": 861,
      "har": 862,
      "ĠDU": 863,
      "ĠRome": 864,
      "SS": 865,
      "Ġput": 866,
      "ICH": 867,
      "Ġmaster": 868,
      "cl": 869,
      "me": 870,
      "Ġfell": 871,
      "old": 872,
      "ittle": 873,
      "Ġmyself": 874,
      "ren": 875,
      "atch": 876,
      "ĠRICH": 877,
      "Ġpri": 878,
      "Ġdaughter": 879,
      "Ġserv": 880,
      "ĠAnt": 881,
      "mp": 882,
      "ĠLE": 883,
      "ield": 884,
      "Ġtong": 885,
      "Ġset": 886,
      "hip": 887,
      "Ġfriends": 888,
      "ĠThan": 889,
      "Ġlie": 890,
      "CT": 891,
      "men": 892,
      "Ġeye": 893,
      "ne": 894,
      "ĠNay": 895,
      "Ġwife": 896,
      "Ġyoung": 897,
      "ĠRICHARD": 898,
      "ins": 899,
      "Ġlittle": 900,
      "ĠNot": 901,
      "Ġhour": 902,
      "ĠHer": 903,
      "ĠBr": 904,
      "Ġthose": 905,
      "ĠOF": 906,
      "rance": 907,
      "well": 908,
      "ark": 909,
      "ĠEng": 910,
      "UT": 911,
      "ac": 912,
      "Ġfollow": 913,
      "ĠSEC": 914,
      "rant": 915,
      "Ġfirst": 916,
      "ĠLA": 917,
      "ĠSECOND": 918,
      "Ġchi": 919,
      "INE": 920,
      "Ġhold": 921,
      "istress": 922,
      "vil": 923,
      "RY": 924,
      "its": 925,
      "ret": 926,
      "ons": 927,
      "Ġnat": 928,
      "EEN": 929,
      "int": 930,
      "Ġdie": 931,
      "UL": 932,
      "Ġdear": 933,
      "lf": 934,
      "Ġplace": 935,
      "Ġsle": 936,
      "tend": 937,
      "ile": 938,
      "for": 939,
      "ĠShall": 940,
      "ĠQUEEN": 941,
      "esar": 942,
      "Ġconf": 943,
      "ab": 944,
      "Ġrest": 945,
      "ens": 946,
      "Ġgu": 947,
      "Ġunder": 948,
      "Ġfall": 949,
      "Ġfe": 950,
      "uty": 951,
      "alk": 952,
      "Ġhimself": 953,
      "Ġtra": 954,
      "eds": 955,
      "Ġcons": 956,
      "IM": 957,
      "lt": 958,
      "Ġface": 959,
      "Ġthine": 960,
      "uth": 961,
      "Ġlords": 962,
      "Ġmind": 963,
      "Ġgone": 964,
      "ĠFAL": 965,
      "ilt": 966,
      "STAFF": 967,
      "ĠFALSTAFF": 968,
      "ĠCl": 969,
      "ĠYet": 970,
      "TER": 971,
      "ison": 972,
      "Ġel": 973,
      "WN": 974,
      "Ġtri": 975,
      "Ġagainst": 976,
      ".âĢĶ": 977,
      "oud": 978,
      "Ġch": 979,
      "ĠDUKE": 980,
      "ail": 981,
      "Ġansw": 982,
      "Ġworth": 983,
      "erve": 984,
      "Ġkind": 985,
      "ĠHave": 986,
      "Ġgi": 987,
      "iness": 988,
      "Ġpass": 989,
      "ĠLUC": 990,
      "ĠCaesar": 991,
      "ĠThy": 992,
      "Ġnone": 993,
      "IS": 994,
      "oun": 995,
      "Ġche": 996,
      "Ġboy": 997,
      "Ġwoman": 998,
      "Ġgrie": 999,
      "Ġpresent": 1000,
      "RIN": 1001,
      "Ġplay": 1002,
      "get": 1003,
      "ows": 1004,
      "irt": 1005,
      "Ġtill": 1006,
      "Ġmother": 1007,
      "ID": 1008,
      "ont": 1009,
      "Ġfull": 1010,
      "Ġstay": 1011,
      "hed": 1012,
      "Ġseem": 1013,
      "Ġsword": 1014,
      "Ġtongue": 1015,
      "Ġres": 1016,
      "ICK": 1017,
      "Ġcourt": 1018,
      "ĠAll": 1019,
      "Ġafter": 1020,
      "bt": 1021,
      "ect": 1022,
      "esty": 1023,
      "Ġcur": 1024,
      "Ġtre": 1025,
      "Ġchar": 1026,
      "Ġwords": 1027,
      "Ġbring": 1028,
      "Ġturn": 1029,
      "Ġwhose": 1030,
      "Ġpe": 1031,
      "ĠANTON": 1032,
      "be": 1033,
      "side": 1034,
      "ĠOur": 1035,
      "Ġthough": 1036,
      "Ġelse": 1037,
      "ale": 1038,
      "sand": 1039,
      "Ġhus": 1040,
      "Ġforth": 1041,
      "RESS": 1042,
      "Ġright": 1043,
      "OST": 1044,
      "led": 1045,
      "Ġstre": 1046,
      "ult": 1047,
      "Ġpeace": 1048,
      "ĠFrance": 1049,
      "tune": 1050,
      "Ġchild": 1051,
      "ED": 1052,
      "Ġsaid": 1053,
      "Ġanother": 1054,
      "race": 1055,
      "Ġthr": 1056,
      "ĠAR": 1057,
      "Ġcount": 1058,
      "asure": 1059,
      "ition": 1060,
      "Ġlight": 1061,
      "Ġimp": 1062,
      "EM": 1063,
      "Ġbel": 1064,
      "Ġdra": 1065,
      "ĠPRIN": 1066,
      "Ġback": 1067,
      "UN": 1068,
      "ix": 1069,
      "ĠAr": 1070,
      "Ġwrong": 1071,
      "Ġchan": 1072,
      "ants": 1073,
      "Ġanswer": 1074,
      "Ġsame": 1075,
      "Ġonce": 1076,
      "Ġkill": 1077,
      "band": 1078,
      "ets": 1079,
      "hile": 1080,
      "Ġspir": 1081,
      "Ġret": 1082,
      "Ġacc": 1083,
      "Ġfal": 1084,
      "lp": 1085,
      "Ġreason": 1086,
      "IST": 1087,
      "Ġbod": 1088,
      "ory": 1089,
      "Ġcrown": 1090,
      "Ġunto": 1091,
      "Ġmean": 1092,
      "Aside": 1093,
      "Ġbid": 1094,
      "ANT": 1095,
      "LES": 1096,
      "Ġdre": 1097,
      "Ġhas": 1098,
      "ĠHEN": 1099,
      "eech": 1100,
      "ĠAnton": 1101,
      "ĠHENRY": 1102,
      "air": 1103,
      "orse": 1104,
      "Ġhope": 1105,
      "ati": 1106,
      "ceive": 1107,
      "Ġhusband": 1108,
      "Ġmatter": 1109,
      "ĠFrom": 1110,
      "Ġearth": 1111,
      "Ġletter": 1112,
      "Ġstran": 1113,
      "ister": 1114,
      "Ġpra": 1115,
      "Ġfaith": 1116,
      "ĠUp": 1117,
      "mb": 1118,
      "Ġover": 1119,
      "ĠCLO": 1120,
      ",âĢĶ": 1121,
      "CH": 1122,
      "Ġhum": 1123,
      "Ġmeet": 1124,
      "ried": 1125,
      "Ġvill": 1126,
      "ĠJo": 1127,
      "Ġpower": 1128,
      "ĠACT": 1129,
      "ary": 1130,
      "ury": 1131,
      "Ġabout": 1132,
      "selves": 1133,
      "Ġdou": 1134,
      "Ġinde": 1135,
      "Ġass": 1136,
      "tw": 1137,
      "Ġheard": 1138,
      "Ġbea": 1139,
      "Ġgrace": 1140,
      "ĠIII": 1141,
      "Ġhome": 1142,
      "Ġeven": 1143,
      "vy": 1144,
      "Ġhigh": 1145,
      "Ġmo": 1146,
      "Ġthousand": 1147,
      "ĠâĢĺ": 1148,
      "RA": 1149,
      "eal": 1150,
      "Ġthree": 1151,
      "Ġsleep": 1152,
      "Ġindeed": 1153,
      "ĠSu": 1154,
      "Ġshame": 1155,
      "Ġplease": 1156,
      "Ġhands": 1157,
      "Ġwhom": 1158,
      "LET": 1159,
      "Ġmon": 1160,
      "Ġbes": 1161,
      "ĠHAM": 1162,
      "ĠHAMLET": 1163,
      "Ġwind": 1164,
      "Ġfalse": 1165,
      "Ġthing": 1166,
      "omet": 1167,
      "Ġcause": 1168,
      "Ġvirt": 1169,
      "fect": 1170,
      "Ġjust": 1171,
      "Ġdisc": 1172,
      "ged": 1173,
      "Ġi": 1174,
      "Ġdost": 1175,
      "Ġhence": 1176,
      "Ġgods": 1177,
      "Ġbed": 1178,
      "ĠAre": 1179,
      "ĠRe": 1180,
      "Ġsub": 1181,
      "Ġmaid": 1182,
      "ĠSp": 1183,
      "Ġsold": 1184,
      "Ġnature": 1185,
      "imes": 1186,
      "ĠLu": 1187,
      "pect": 1188,
      "ĠED": 1189,
      "Ġtherefore": 1190,
      "ph": 1191,
      "Ġmis": 1192,
      "Ġtruth": 1193,
      "Ġmakes": 1194,
      "ars": 1195,
      "ĠUpon": 1196,
      "iv": 1197,
      "IZ": 1198,
      "UM": 1199,
      "ute": 1200,
      "Ġthank": 1201,
      "Ġwithin": 1202,
      "Ġstate": 1203,
      "Ġvillain": 1204,
      "hn": 1205,
      "ms": 1206,
      "Ġgold": 1207,
      "PE": 1208,
      "ere": 1209,
      "ĠPRO": 1210,
      "Ġsure": 1211,
      "AST": 1212,
      "ardon": 1213,
      "Ġlaw": 1214,
      "Ġmadam": 1215,
      "ork": 1216,
      "Ġnear": 1217,
      "any": 1218,
      "Ġgr": 1219,
      "ĠGive": 1220,
      "ĠJohn": 1221,
      "Ġbreak": 1222,
      "Ġuse": 1223,
      "Ġfar": 1224,
      "Ġval": 1225,
      "ĠEd": 1226,
      "To": 1227,
      "Ġyouth": 1228,
      "ĠMaster": 1229,
      "Ġadv": 1230,
      "fort": 1231,
      "Ġere": 1232,
      "ade": 1233,
      "ouch": 1234,
      "Ġbus": 1235,
      "Ġcar": 1236,
      "Ġthings": 1237,
      "vere": 1238,
      "ning": 1239,
      "Ġsent": 1240,
      "Ġban": 1241,
      "Ġstri": 1242,
      "ild": 1243,
      "ousin": 1244,
      "cious": 1245,
      "Ġill": 1246,
      "Ġfight": 1247,
      "Ġcame": 1248,
      "ours": 1249,
      "ieve": 1250,
      "ĠROS": 1251,
      "ERO": 1252,
      "ESTER": 1253,
      "hes": 1254,
      "Ġbu": 1255,
      "Ġob": 1256,
      "ĠEngland": 1257,
      "OM": 1258,
      "Ġtears": 1259,
      "Ġhither": 1260,
      "Ġhapp": 1261,
      "pen": 1262,
      "Ġcoun": 1263,
      "Ġkiss": 1264,
      "ches": 1265,
      "AB": 1266,
      "ents": 1267,
      "ctor": 1268,
      "Ġlast": 1269,
      "Ġye": 1270,
      "ĠQue": 1271,
      "Ġnews": 1272,
      "Ġhelp": 1273,
      "ELLO": 1274,
      "Ġbody": 1275,
      "Ġbo": 1276,
      "UCH": 1277,
      "Ġfire": 1278,
      "ates": 1279,
      "Ġwel": 1280,
      "Ġsound": 1281,
      "ĠLORD": 1282,
      "Ġgrief": 1283,
      "ĠWould": 1284,
      "Ġshalt": 1285,
      "ETH": 1286,
      "Ġenough": 1287,
      "GAR": 1288,
      "ns": 1289,
      "Ġhang": 1290,
      "ĠQueen": 1291,
      "ĠDid": 1292,
      "Ġsec": 1293,
      "day": 1294,
      "yal": 1295,
      "ĠSh": 1296,
      "vers": 1297,
      "Ġdoes": 1298,
      "Ġgentleman": 1299,
      "hard": 1300,
      "Ġfellow": 1301,
      "ĠCLOWN": 1302,
      "Ġsince": 1303,
      "Ġmistress": 1304,
      "Ġwithout": 1305,
      "gether": 1306,
      "OB": 1307,
      "ring": 1308,
      "ions": 1309,
      "ched": 1310,
      "dd": 1311,
      "und": 1312,
      "Ġgre": 1313,
      "ĠLook": 1314,
      "ains": 1315,
      "ĠRo": 1316,
      "Ġqueen": 1317,
      "ĠPRINCE": 1318,
      "ĠTherefore": 1319,
      "ĠOn": 1320,
      "Ġrather": 1321,
      "Ġstrong": 1322,
      "Ġcare": 1323,
      "ĠHath": 1324,
      "Ġseen": 1325,
      "ĠYork": 1326,
      "Ġhonest": 1327,
      ".âĢĿ": 1328,
      "ily": 1329,
      "Ġweep": 1330,
      "ike": 1331,
      "op": 1332,
      "ues": 1333,
      "Ġlay": 1334,
      "ener": 1335,
      "ĠAL": 1336,
      "alace": 1337,
      "Ġthrough": 1338,
      "ĠBR": 1339,
      "ĠBefore": 1340,
      "Ġbreath": 1341,
      "iers": 1342,
      "Ġinst": 1343,
      "Ġdevil": 1344,
      "els": 1345,
      "Ġenem": 1346,
      "att": 1347,
      "ĠMAC": 1348,
      "ĠThese": 1349,
      "Ġsun": 1350,
      "Ġfault": 1351,
      "ered": 1352,
      "ject": 1353,
      "ĠIV": 1354,
      "Ġland": 1355,
      "eed": 1356,
      "enry": 1357,
      "Ġsaw": 1358,
      "ween": 1359,
      "Ġwhy": 1360,
      "Ġpers": 1361,
      "ĠEven": 1362,
      "Ġprove": 1363,
      "Ġpurp": 1364,
      "BER": 1365,
      "ham": 1366,
      "Ġcousin": 1367,
      "usic": 1368,
      "cester": 1369,
      "use": 1370,
      "Ġsomet": 1371,
      "ĠTro": 1372,
      "ĠHenry": 1373,
      "Ġenter": 1374,
      "Ġdan": 1375,
      "Ġjoy": 1376,
      "UTUS": 1377,
      "Ġpati": 1378,
      "hold": 1379,
      "Ġarms": 1380,
      "ĠBRUTUS": 1381,
      "ner": 1382,
      "Ġsorrow": 1383,
      "ĠSH": 1384,
      "OP": 1385,
      "Ġsea": 1386,
      "Ġcommand": 1387,
      "ĠPrince": 1388,
      "Ġstrange": 1389,
      "av": 1390,
      "ĠCH": 1391,
      "ĠMay": 1392,
      "Ġunc": 1393,
      "Ġwelcome": 1394,
      "ned": 1395,
      "Ġent": 1396,
      "Ġyourself": 1397,
      "ĠGl": 1398,
      "Ġlost": 1399,
      "Ġbeauty": 1400,
      "der": 1401,
      "ran": 1402,
      "Ġoft": 1403,
      "ĠSIR": 1404,
      "Ġremem": 1405,
      "AGO": 1406,
      "IMON": 1407,
      "aw": 1408,
      "EUS": 1409,
      "Ġmeans": 1410,
      "ĠOTH": 1411,
      "ERV": 1412,
      "jesty": 1413,
      "ken": 1414,
      "Ġwant": 1415,
      "ĠROSAL": 1416,
      "ĠOTHELLO": 1417,
      "iz": 1418,
      "Ġca": 1419,
      "ides": 1420,
      "Ġonly": 1421,
      "Ġbless": 1422,
      "Ġgrow": 1423,
      "ats": 1424,
      "ĠCan": 1425,
      "Ġstra": 1426,
      "Ġdisp": 1427,
      "let": 1428,
      "ĠSERV": 1429,
      "ĠGR": 1430,
      "Ġspirit": 1431,
      "oe": 1432,
      "ĠIAGO": 1433,
      "ĠRic": 1434,
      "ĠAntony": 1435,
      "ised": 1436,
      "Ġdru": 1437,
      "Ġsend": 1438,
      "Ġsing": 1439,
      "Ġfoul": 1440,
      "ster": 1441,
      "ĠFare": 1442,
      "gs": 1443,
      "Ġless": 1444,
      "Ġprince": 1445,
      "Ġreturn": 1446,
      "Ġhorse": 1447,
      "ĠMIST": 1448,
      "Ġfortune": 1449,
      "Ġspo": 1450,
      "ĠRichard": 1451,
      "ĠMISTRESS": 1452,
      "Ġtem": 1453,
      "Ġtalk": 1454,
      "Ġwish": 1455,
      "Ġswear": 1456,
      "iet": 1457,
      "ott": 1458,
      "Ġget": 1459,
      "ĠWhose": 1460,
      "ĠLEON": 1461,
      "ĠCASS": 1462,
      "Ġcry": 1463,
      "Ġneed": 1464,
      "ĠGrace": 1465,
      "DY": 1466,
      "Ġtogether": 1467,
      "Ġyours": 1468,
      "Ġattend": 1469,
      "Ġdist": 1470,
      "Ġleft": 1471,
      "Ġthoughts": 1472,
      "oucester": 1473,
      "ished": 1474,
      "Ġfree": 1475,
      "oney": 1476,
      "Ġsight": 1477,
      "ĠGENT": 1478,
      "Ġprison": 1479,
      "Ġdesire": 1480,
      "ĠGENTLE": 1481,
      "Ġborn": 1482,
      "rench": 1483,
      "ĠANTONY": 1484,
      "Ġmur": 1485,
      "ĠSome": 1486,
      "ĠThough": 1487,
      "Ġcountry": 1488,
      "ĠGloucester": 1489,
      "Ġpardon": 1490,
      "ĠWar": 1491,
      "ĠEx": 1492,
      "Ġread": 1493,
      "ĠGLO": 1494,
      "UCESTER": 1495,
      "Ġhard": 1496,
      "ĠGLOUCESTER": 1497,
      "ĠBO": 1498,
      "ĠFR": 1499,
      "ross": 1500,
      "ift": 1501,
      "Ġalone": 1502,
      "rink": 1503,
      "Ġprom": 1504,
      "Ġitself": 1505,
      "Ġlies": 1506,
      "ures": 1507,
      "Ġsick": 1508,
      "Ġden": 1509,
      "ORT": 1510,
      "Ġexce": 1511,
      "Ġwilt": 1512,
      "ĠPro": 1513,
      "ĠUn": 1514,
      "outh": 1515,
      "ETR": 1516,
      "Ġbusiness": 1517,
      "mer": 1518,
      "Ġfly": 1519,
      "ĠWas": 1520,
      "Ġsupp": 1521,
      "wick": 1522,
      "ĠTill": 1523,
      "Ġpity": 1524,
      "Ġtold": 1525,
      "Ġdel": 1526,
      "Ġsays": 1527,
      "Ġjud": 1528,
      "ced": 1529,
      "dom": 1530,
      "ĠCOR": 1531,
      "ĠCass": 1532,
      "Ġcomfort": 1533,
      "Ġproud": 1534,
      "onder": 1535,
      "by": 1536,
      "Ġfound": 1537,
      "ĠMore": 1538,
      "Ġroyal": 1539,
      "Ġsad": 1540,
      "Ġdef": 1541,
      "gainst": 1542,
      "ĠPer": 1543,
      "Ġvo": 1544,
      "The": 1545,
      "Ġhalf": 1546,
      "Ġseek": 1547,
      "ertain": 1548,
      "LI": 1549,
      "Ġwat": 1550,
      "Ġgener": 1551,
      "ĠNe": 1552,
      "Ġdoubt": 1553,
      "med": 1554,
      "Ġsil": 1555,
      "Ġlate": 1556,
      "Ġgave": 1557,
      "ANIO": 1558,
      "ĠGENTLEMAN": 1559,
      "ople": 1560,
      "ounds": 1561,
      "ĠJUL": 1562,
      "like": 1563,
      "ĠWarwick": 1564,
      "Ġfield": 1565,
      "Ġcra": 1566,
      "Ġrec": 1567,
      "Ġsister": 1568,
      "Ġroom": 1569,
      "Ġcold": 1570,
      "LAND": 1571,
      "Ġaw": 1572,
      "Ġsk": 1573,
      "ĠSw": 1574,
      "roke": 1575,
      "Ġwork": 1576,
      "Ġdraw": 1577,
      "itor": 1578,
      "Ġinf": 1579,
      "ĠCLE": 1580,
      "Ġdep": 1581,
      "Ġfare": 1582,
      "Ġvi": 1583,
      "Ġservice": 1584,
      "lish": 1585,
      "YR": 1586,
      "ls": 1587,
      "ithe": 1588,
      "Ġoath": 1589,
      "Ġwear": 1590,
      "Ġlooks": 1591,
      "ling": 1592,
      "up": 1593,
      "Ġtend": 1594,
      "Ġserve": 1595,
      "Ġmet": 1596,
      "ang": 1597,
      "ĠFrench": 1598,
      "Ġreven": 1599,
      "ĠĠĠĠĠĠĠĠĠĠĠ": 1600,
      "Ġbloody": 1601,
      "Ġrun": 1602,
      "aff": 1603,
      "ford": 1604,
      "Ġbri": 1605,
      "ĠTake": 1606,
      "eter": 1607,
      "ĠPAG": 1608,
      "rew": 1609,
      "oman": 1610,
      "Ġeach": 1611,
      "ĠPAGE": 1612,
      "SP": 1613,
      "cess": 1614,
      "Ġfore": 1615,
      "Ġhate": 1616,
      "ATH": 1617,
      "Ġquick": 1618,
      "Ġwin": 1619,
      "Ġdare": 1620,
      "ĠLike": 1621,
      "Ġlose": 1622,
      "Ġbetween": 1623,
      "Ġsin": 1624,
      "Ġsen": 1625,
      "Ġbir": 1626,
      "Ġfur": 1627,
      "ĠBA": 1628,
      "Ġlead": 1629,
      "bour": 1630,
      "Ġage": 1631,
      "Ġthyself": 1632,
      "ĠWere": 1633,
      "Ġmark": 1634,
      "Ġpeople": 1635,
      "DER": 1636,
      "xt": 1637,
      "ĠSay": 1638,
      "Ġsoon": 1639,
      "ĠLADY": 1640,
      "ĠEdward": 1641,
      "Ġpurpose": 1642,
      "ĠYes": 1643,
      "Ġfoot": 1644,
      "ĠPray": 1645,
      "UFF": 1646,
      "Ġair": 1647,
      "ĠCom": 1648,
      "az": 1649,
      "Ġlear": 1650,
      "Ġtimes": 1651,
      "Ġsuff": 1652,
      "ments": 1653,
      "ial": 1654,
      "most": 1655,
      "Ġmusic": 1656,
      "ĠDe": 1657,
      "Ġpleas": 1658,
      "vent": 1659,
      "ĠMESS": 1660,
      "alth": 1661,
      "Ġask": 1662,
      "Ġ(": 1663,
      "Ġdam": 1664,
      "Ġcho": 1665,
      "Ġcond": 1666,
      "Ġdream": 1667,
      "Ġdanger": 1668,
      "utus": 1669,
      "Ġknows": 1670,
      "Ġbeseech": 1671,
      "vour": 1672,
      "Ġwa": 1673,
      "ĠTIMON": 1674,
      "ĠMEN": 1675,
      "oose": 1676,
      "ithee": 1677,
      "imon": 1678,
      "Ġdeep": 1679,
      "aking": 1680,
      "Ġcompany": 1681,
      "ĠSpeak": 1682,
      "ery": 1683,
      "Ġlives": 1684,
      "Ġloves": 1685,
      "ĠServ": 1686,
      "IND": 1687,
      "Ġknight": 1688,
      "Ġcharge": 1689,
      "BETH": 1690,
      "Ġter": 1691,
      "Ġaff": 1692,
      "Ġmin": 1693,
      "ĠHa": 1694,
      "ĠOne": 1695,
      "Ġbrought": 1696,
      "Ġgrave": 1697,
      "Ġcommon": 1698,
      "ĠMACBETH": 1699,
      ",âĢĿ": 1700,
      "arry": 1701,
      "ĠHEL": 1702,
      "ĠPl": 1703,
      "ĠFl": 1704,
      "ĠLe": 1705,
      "ices": 1706,
      "Ġyield": 1707,
      "ĠMost": 1708,
      "ĠYOR": 1709,
      "INA": 1710,
      "INIUS": 1711,
      "ATRA": 1712,
      "Ġdays": 1713,
      "Ġworthy": 1714,
      "Ġbelieve": 1715,
      "OPATRA": 1716,
      "ĠCLEOPATRA": 1717,
      "ĠYORK": 1718,
      "Ġgeneral": 1719,
      "EW": 1720,
      "GER": 1721,
      "Ġwhile": 1722,
      "rest": 1723,
      "ĠPAR": 1724,
      "Ġothers": 1725,
      "gue": 1726,
      "now": 1727,
      "Ġsit": 1728,
      "ĠSYR": 1729,
      "USE": 1730,
      "ĠAnother": 1731,
      "Ġcontent": 1732,
      "ACUSE": 1733,
      "ĠMARGAR": 1734,
      "ĠSYRACUSE": 1735,
      "Ġdrink": 1736,
      "Ġcertain": 1737,
      "fection": 1738,
      "OLK": 1739,
      "Ġtrust": 1740,
      "ILIA": 1741,
      "IANA": 1742,
      "Ġfurther": 1743,
      "TES": 1744,
      "Ġwise": 1745,
      "Ġbar": 1746,
      "Ġbound": 1747,
      "Ġyears": 1748,
      "ĠMad": 1749,
      "ĠBrutus": 1750,
      "UNT": 1751,
      "ĠROSALIND": 1752,
      "LY": 1753,
      "aim": 1754,
      "cause": 1755,
      "essen": 1756,
      "ELIA": 1757,
      "Ġwarrant": 1758,
      "ĠANTI": 1759,
      "Ġuncle": 1760,
      "bs": 1761,
      "ives": 1762,
      "ĠCh": 1763,
      "Ġforg": 1764,
      "ICE": 1765,
      "Ġhappy": 1766,
      "ĠMARGARET": 1767,
      "Ġpar": 1768,
      "amp": 1769,
      "Ġbrave": 1770,
      "Ġvirtue": 1771,
      "DR": 1772,
      "Ġmorn": 1773,
      "Ġfit": 1774,
      "Ġlad": 1775,
      "ĠMistress": 1776,
      "Ġsum": 1777,
      "Ġknown": 1778,
      "Ġexp": 1779,
      "Ġcut": 1780,
      "ĠCIT": 1781,
      "enty": 1782,
      "hil": 1783,
      "ĠKATH": 1784,
      "ief": 1785,
      "Ġholy": 1786,
      "Ġsave": 1787,
      "Ġpleasure": 1788,
      "IZEN": 1789,
      "ĠCITIZEN": 1790,
      "EY": 1791,
      "ible": 1792,
      "Ġact": 1793,
      "estion": 1794,
      "thing": 1795,
      "oss": 1796,
      "kes": 1797,
      "oor": 1798,
      "Ġwoe": 1799,
      "Ġcor": 1800,
      "ENGER": 1801,
      "Ġself": 1802,
      "ĠFarewell": 1803,
      "ĠMESSENGER": 1804,
      "Ġsur": 1805,
      "Ġinc": 1806,
      "ĠHad": 1807,
      "olk": 1808,
      "ĠMarry": 1809,
      "Ġgiven": 1810,
      "VIA": 1811,
      "Ġbold": 1812,
      "onight": 1813,
      "Ġpay": 1814,
      "Ġpast": 1815,
      "Ġblack": 1816,
      "ROM": 1817,
      "ĠSERVANT": 1818,
      "the": 1819,
      "Ġmoney": 1820,
      "Ġposs": 1821,
      "Ġmarry": 1822,
      "ĠAlas": 1823,
      "Ġside": 1824,
      "hal": 1825,
      "ĠLEAR": 1826,
      "morrow": 1827,
      "Ġsake": 1828,
      "Ġcol": 1829,
      "Ġopen": 1830,
      "ries": 1831,
      "Ġste": 1832,
      "Ġgracious": 1833,
      "Ġground": 1834,
      "ĠRoom": 1835,
      "Ġac": 1836,
      "ĠWAR": 1837,
      "ANUS": 1838,
      "aught": 1839,
      "Ġrich": 1840,
      "bb": 1841,
      "Ġhell": 1842,
      "ĠSee": 1843,
      "ĠPage": 1844,
      "Ġsovere": 1845,
      "Ġpraise": 1846,
      "WICK": 1847,
      "ĠTell": 1848,
      "oward": 1849,
      "ĠPAND": 1850,
      "ĠLady": 1851,
      "IRD": 1852,
      "Ġpoint": 1853,
      "ĠTHIRD": 1854,
      "AS": 1855,
      "oint": 1856,
      "Ġten": 1857,
      "ĠSince": 1858,
      "ĠMake": 1859,
      "ĠFORD": 1860,
      "aud": 1861,
      "Ġears": 1862,
      "ĠAttend": 1863,
      "ĠMadam": 1864,
      "ĠWARWICK": 1865,
      "OG": 1866,
      "OT": 1867,
      "WARD": 1868,
      "Ġburn": 1869,
      "lly": 1870,
      "Ġdiv": 1871,
      "Ġgall": 1872,
      "Ġeat": 1873,
      "ERS": 1874,
      "ĠThus": 1875,
      "Ġheavy": 1876,
      "Ġreport": 1877,
      "Ġchee": 1878,
      "Ġtomorrow": 1879,
      "ots": 1880,
      "gel": 1881,
      "iece": 1882,
      "Ġgoes": 1883,
      "ELL": 1884,
      "Ġprof": 1885,
      "Ġtonight": 1886,
      "Ġhot": 1887,
      "Ġbeat": 1888,
      "Ġem": 1889,
      "ush": 1890,
      "Ġshort": 1891,
      "Ġwomen": 1892,
      "ĠEnglish": 1893,
      "oof": 1894,
      "ĠPER": 1895,
      "Ġvis": 1896,
      "Ġthemselves": 1897,
      "DO": 1898,
      "cent": 1899,
      "Ġmouth": 1900,
      "Ġwis": 1901,
      "Ġgar": 1902,
      "Ġrequ": 1903,
      "ĠDON": 1904,
      "ortal": 1905,
      "OLUS": 1906,
      "Ġhearts": 1907,
      "PHOLUS": 1908,
      "form": 1909,
      "Ġtender": 1910,
      "ĠANTIPHOLUS": 1911,
      "ec": 1912,
      "ship": 1913,
      "Ġsign": 1914,
      "HN": 1915,
      "ĠJO": 1916,
      "UCK": 1917,
      "Ġmercy": 1918,
      "Ġperson": 1919,
      "Ġjudge": 1920,
      "inks": 1921,
      "Ġenemy": 1922,
      "iant": 1923,
      "ĠAway": 1924,
      "owers": 1925,
      "Ġweak": 1926,
      "gar": 1927,
      "ined": 1928,
      "Ġfour": 1929,
      "esh": 1930,
      "ote": 1931,
      "ĠWh": 1932,
      "ceed": 1933,
      "Ġmerry": 1934,
      "Ġremember": 1935,
      "MILIA": 1936,
      "ip": 1937,
      "Ġmock": 1938,
      "ĠMa": 1939,
      "ĠLond": 1940,
      "alt": 1941,
      "ĠEMILIA": 1942,
      "Ġlips": 1943,
      "Ġsuit": 1944,
      "Ġknave": 1945,
      "ally": 1946,
      "ĠVAL": 1947,
      "Ġconfess": 1948,
      "Ġsubject": 1949,
      "ĠJOHN": 1950,
      "ĠLondon": 1951,
      "ray": 1952,
      "Ġest": 1953,
      "Ġknew": 1954,
      "umber": 1955,
      "Ġcourse": 1956,
      "Ġpatience": 1957,
      "Ġfarewell": 1958,
      "cha": 1959,
      "ARUS": 1960,
      "astle": 1961,
      "ONA": 1962,
      "Ġneither": 1963,
      "uff": 1964,
      "Ġwoo": 1965,
      "ĠTIT": 1966,
      "Ġbehold": 1967,
      "Ġhair": 1968,
      "ĠOut": 1969,
      "Ġatt": 1970,
      "Ġring": 1971,
      "ĠANTONIO": 1972,
      "len": 1973,
      "rs": 1974,
      "Ġ1": 1975,
      "Ġdro": 1976,
      "ĠAd": 1977,
      "Ġpen": 1978,
      "Ġpalace": 1979,
      "atis": 1980,
      "ated": 1981,
      "ĠCon": 1982,
      "alm": 1983,
      "Ġdeed": 1984,
      "Ġnext": 1985,
      "Ġdesp": 1986,
      "Ġsons": 1987,
      "ires": 1988,
      "Ġtouch": 1989,
      "Ġbos": 1990,
      "Ġbase": 1991,
      "ĠTheir": 1992,
      "ask": 1993,
      "ram": 1994,
      "Ġplain": 1995,
      "Ġchange": 1996,
      "ĠHELEN": 1997,
      "UD": 1998,
      "ca": 1999,
      "com": 2000,
      "Ġfea": 2001,
      "Ġfast": 2002,
      "Ġhaste": 2003,
      "sue": 2004,
      "vo": 2005,
      "ĠCLA": 2006,
      "Ġemb": 2007,
      "Ġspeed": 2008,
      "aste": 2009,
      "ĠEDWARD": 2010,
      "Ġstraight": 2011,
      "Ġvoice": 2012,
      "ĠCLAUD": 2013,
      "ior": 2014,
      "Ġbatt": 2015,
      "ĠAh": 2016,
      "Ġgro": 2017,
      "Ġred": 2018,
      "Ġdev": 2019,
      "Ġbosom": 2020,
      "DEM": 2021,
      "EO": 2022,
      "MEO": 2023,
      "uous": 2024,
      "vel": 2025,
      "ĠMust": 2026,
      "ĠDES": 2027,
      "Ġdog": 2028,
      "Ġgentlemen": 2029,
      "Ġwhite": 2030,
      "ĠROMEO": 2031,
      "DEMONA": 2032,
      "ĠDESDEMONA": 2033,
      "pr": 2034,
      "ads": 2035,
      "ĠLove": 2036,
      "ENIUS": 2037,
      "Ġcanst": 2038,
      "Ġquestion": 2039,
      "ACH": 2040,
      "Ġsoldier": 2041,
      "ĠMENENIUS": 2042,
      "ges": 2043,
      "pl": 2044,
      "Ġdark": 2045,
      "Ġcle": 2046,
      "ĠDROM": 2047,
      "Ġworse": 2048,
      "Ġtook": 2049,
      "ĠShould": 2050,
      "Ġentreat": 2051,
      "Ġwater": 2052,
      "ĠDROMIO": 2053,
      "Ġwret": 2054,
      "Ġwonder": 2055,
      "ĠTit": 2056,
      "ĠTru": 2057,
      "ĠCO": 2058,
      "ĠPar": 2059,
      "ague": 2060,
      "Ġfeel": 2061,
      "Ġsovereign": 2062,
      "no": 2063,
      "ites": 2064,
      "Ġtoward": 2065,
      "ĠHector": 2066,
      "ĠĠĠĠĠĠĠĠĠĠĠĠĠĠĠĠĠĠĠ": 2067,
      "ethinks": 2068,
      "essenger": 2069,
      "ĠCLAUDIO": 2070,
      "ones": 2071,
      "ities": 2072,
      "Ġthri": 2073,
      "Ġpu": 2074,
      "Ġtown": 2075,
      "ully": 2076,
      "Ġscorn": 2077,
      "Ġpret": 2078,
      "Ġservant": 2079,
      "!âĢĶ": 2080,
      "stand": 2081,
      "ĠBERO": 2082,
      "Ġquar": 2083,
      "WNE": 2084,
      "IDA": 2085,
      "ABEL": 2086,
      "Ġsomething": 2087,
      "ĠFRI": 2088,
      "ĠSweet": 2089,
      "ĠBEROWNE": 2090,
      "MA": 2091,
      "Tw": 2092,
      "Ġord": 2093,
      "Ġmove": 2094,
      "Ġwall": 2095,
      "Ġduty": 2096,
      "ĠPETR": 2097,
      "Ġdoor": 2098,
      "Ġfavour": 2099,
      "Ġkne": 2100,
      "UCHIO": 2101,
      "ĠPETRUCHIO": 2102,
      "to": 2103,
      "Ġcr": 2104,
      "ĠOLI": 2105,
      "ĠDes": 2106,
      "cks": 2107,
      "Ġappear": 2108,
      "Ġglad": 2109,
      "Ġstreng": 2110,
      "ixt": 2111,
      "gg": 2112,
      "Ġwatch": 2113,
      "Ġwalk": 2114,
      "Ġcity": 2115,
      "Ġsport": 2116,
      "Ġtraitor": 2117,
      "Ġvaliant": 2118,
      "IER": 2119,
      "Ġta": 2120,
      "Ġcoward": 2121,
      "Ġow": 2122,
      "irm": 2123,
      "ourish": 2124,
      "ĠPED": 2125,
      "each": 2126,
      "rows": 2127,
      "Ġprop": 2128,
      "ĠSuch": 2129,
      "Ġcreat": 2130,
      "Ġhur": 2131,
      "ĠCRESS": 2132,
      "Ġnote": 2133,
      "ĠOR": 2134,
      "ends": 2135,
      "Ġappro": 2136,
      "ENTINE": 2137,
      "ĠVALENTINE": 2138,
      "ĠCRESSIDA": 2139,
      "hood": 2140,
      "Ġunt": 2141,
      "ĠFal": 2142,
      "urs": 2143,
      "Ġneeds": 2144,
      "Ġpluck": 2145,
      "Ġtrump": 2146,
      "Ġjustice": 2147,
      "ABELLA": 2148,
      "TA": 2149,
      "ready": 2150,
      "ĠTOB": 2151,
      "ĠSe": 2152,
      "ĠHOST": 2153,
      "ĠPANDARUS": 2154,
      "ĠTOBY": 2155,
      "HAM": 2156,
      "VOL": 2157,
      "bury": 2158,
      "Ġbad": 2159,
      "Ġtoday": 2160,
      "Ġspeech": 2161,
      "Ġcoming": 2162,
      "IOL": 2163,
      "Ġtwenty": 2164,
      "ĠAthe": 2165,
      "VOLIO": 2166,
      "bly": 2167,
      "of": 2168,
      "Ġlust": 2169,
      "ĠTimon": 2170,
      "ĠBel": 2171,
      "ĠPeace": 2172,
      "riage": 2173,
      "rah": 2174,
      "INGHAM": 2175,
      "ĠVI": 2176,
      "Ġhours": 2177,
      "Ġpresently": 2178,
      "Ġcounsel": 2179,
      "ĠCORIOL": 2180,
      "ĠCORIOLANUS": 2181,
      "!âĢĿ": 2182,
      "Ġaction": 2183,
      "lex": 2184,
      "ĠNOR": 2185,
      "Ġprin": 2186,
      "Ġdidst": 2187,
      "ptain": 2188,
      "Ġexc": 2189,
      "Ġext": 2190,
      "Ġflesh": 2191,
      "Ġharm": 2192,
      "TEUS": 2193,
      "mber": 2194,
      "Ġopp": 2195,
      "Ġpale": 2196,
      "ament": 2197,
      "Ġmarried": 2198,
      "ainted": 2199,
      "Ġstands": 2200,
      "ĠRomeo": 2201,
      "ĠPROTEUS": 2202,
      "dden": 2203,
      "Ġmorning": 2204,
      "dge": 2205,
      "fter": 2206,
      "Ġmod": 2207,
      "ĠAgainst": 2208,
      "Ġloss": 2209,
      "liver": 2210,
      "Ġguard": 2211,
      "Ġspoke": 2212,
      "aid": 2213,
      "inal": 2214,
      "rey": 2215,
      "Ġund": 2216,
      "ĠCAP": 2217,
      "Ġrespect": 2218,
      "Ġrevenge": 2219,
      "ĠHELENA": 2220,
      "rous": 2221,
      "vol": 2222,
      "ĠPOL": 2223,
      "Ġstir": 2224,
      "ĠĠĠĠĠĠĠ": 2225,
      "feit": 2226,
      "ĠStand": 2227,
      "ĠCOUNT": 2228,
      "oly": 2229,
      "Ġbro": 2230,
      "Ġdu": 2231,
      "cept": 2232,
      "ĠBUCK": 2233,
      "Ġfortun": 2234,
      "ured": 2235,
      "Ġran": 2236,
      "Ġalmost": 2237,
      "cius": 2238,
      "Ġclose": 2239,
      "Ġprep": 2240,
      "Ġmoon": 2241,
      "Ġstrength": 2242,
      "ĠBUCKINGHAM": 2243,
      "ses": 2244,
      "Ġtit": 2245,
      "Ġcap": 2246,
      "Ġlack": 2247,
      "Ġgrant": 2248,
      "ĠJA": 2249,
      "ĠJul": 2250,
      "Ġwithal": 2251,
      "Ġliege": 2252,
      "Ġsoldiers": 2253,
      "oll": 2254,
      "Ġsigh": 2255,
      "Ġemp": 2256,
      "Ġreg": 2257,
      "ESAR": 2258,
      "OLLES": 2259,
      "ĠCAESAR": 2260,
      "Ġmajesty": 2261,
      "ĠLUCIUS": 2262,
      "ĠPAROLLES": 2263,
      "ying": 2264,
      "ines": 2265,
      "Ġmortal": 2266,
      "Ġbecome": 2267,
      "ĠHast": 2268,
      "ĠCount": 2269,
      "Ġras": 2270,
      "Ġalready": 2271,
      "Ġoffend": 2272,
      "Ġtrou": 2273,
      "Ġwild": 2274,
      "ĠIS": 2275,
      "ench": 2276,
      "ĠSUFF": 2277,
      "ĠBl": 2278,
      "ĠCap": 2279,
      "ĠEPH": 2280,
      "ĠGentle": 2281,
      "ESUS": 2282,
      "ALLO": 2283,
      "ĠSHALLO": 2284,
      "Ġmurder": 2285,
      "Ġexcell": 2286,
      "ĠCassio": 2287,
      "ĠSUFFOLK": 2288,
      "ĠEPHESUS": 2289,
      "ĠSHALLOW": 2290,
      "bit": 2291,
      "via": 2292,
      "Ġlow": 2293,
      "Ġforb": 2294,
      "ĠPAL": 2295,
      "Ġsoft": 2296,
      "umb": 2297,
      "AMON": 2298,
      "Ġwars": 2299,
      "Ġslain": 2300,
      "Ġsense": 2301,
      "Ġfeast": 2302,
      "ĠPALAMON": 2303,
      "Ġbur": 2304,
      "ved": 2305,
      "oop": 2306,
      "Ġscar": 2307,
      "ĠClaud": 2308,
      "Ġgives": 2309,
      "ĠCASSIUS": 2310,
      "ught": 2311,
      "Ġbond": 2312,
      "Ġdire": 2313,
      "Ġhide": 2314,
      "Ġind": 2315,
      "Ġinter": 2316,
      "Ġbeast": 2317,
      "ution": 2318,
      "Ġvile": 2319,
      "astard": 2320,
      "Ġconst": 2321,
      "Ġsworn": 2322,
      "Ġbattle": 2323,
      "cher": 2324,
      "Ġmount": 2325,
      "Ġheir": 2326,
      "edi": 2327,
      "Ġhaving": 2328,
      "ĠPom": 2329,
      "Ġreceive": 2330,
      "Ġdisg": 2331,
      "Ġoffice": 2332,
      "Ġbreast": 2333,
      "Ġheavens": 2334,
      "ĠTITUS": 2335,
      "TR": 2336,
      "ired": 2337,
      "rel": 2338,
      "Ġbook": 2339,
      "set": 2340,
      "ĠBE": 2341,
      "als": 2342,
      "ĠEar": 2343,
      "Ġshad": 2344,
      "cience": 2345,
      "rief": 2346,
      "ĠAttendants": 2347,
      "CUS": 2348,
      "DICK": 2349,
      "gry": 2350,
      "pes": 2351,
      "Ġty": 2352,
      "Ġshi": 2353,
      "ĠBENE": 2354,
      "ĠPORT": 2355,
      "ĠFL": 2356,
      "Ġready": 2357,
      "urse": 2358,
      "vern": 2359,
      "ĠRos": 2360,
      "Ġsudden": 2361,
      "pped": 2362,
      "ĠBeing": 2363,
      "Ġspeaks": 2364,
      "Ġwrit": 2365,
      "Ġadd": 2366,
      "Ġrage": 2367,
      "ĠPEDRO": 2368,
      "ĠBENEDICK": 2369,
      "ĠPORTIA": 2370,
      "OW": 2371,
      "Ġid": 2372,
      "Ġfra": 2373,
      "Ġdish": 2374,
      "ĠTRO": 2375,
      "ird": 2376,
      "ENCE": 2377,
      "Ġprithee": 2378,
      "Ġabove": 2379,
      "ILUS": 2380,
      "ĠLords": 2381,
      "Ġkingdom": 2382,
      "Ġbegin": 2383,
      "Ġsuffer": 2384,
      "ĠKATHER": 2385,
      "ĠTROILUS": 2386,
      "CIT": 2387,
      "ron": 2388,
      "Ġmot": 2389,
      "Ġwound": 2390,
      "rem": 2391,
      "staff": 2392,
      "ĠHigh": 2393,
      "ĠCall": 2394,
      "ĠEL": 2395,
      "ĠYea": 2396,
      "Ġjest": 2397,
      "Ġslave": 2398,
      "ĠARCIT": 2399,
      "Ġdeny": 2400,
      "ĠMajesty": 2401,
      "ĠARCITE": 2402,
      "ffect": 2403,
      "hind": 2404,
      "ny": 2405,
      "etch": 2406,
      "ashi": 2407,
      "ardinal": 2408,
      "Ġpriv": 2409,
      "rist": 2410,
      "Ġble": 2411,
      "Ġcross": 2412,
      "ĠAm": 2413,
      "ĠCor": 2414,
      "Ġliving": 2415,
      "ĠDoth": 2416,
      "Ġsever": 2417,
      "empt": 2418,
      "Ġthanks": 2419,
      "ĠQu": 2420,
      "ĠClaudio": 2421,
      "nk": 2422,
      "tain": 2423,
      "Ġfam": 2424,
      "ĠSOL": 2425,
      "ĠHear": 2426,
      "ĠChar": 2427,
      "Ġrel": 2428,
      "Ġtruly": 2429,
      "Ġwhole": 2430,
      "ATO": 2431,
      "Ġabs": 2432,
      "Ġchamber": 2433,
      "Ġhonourable": 2434,
      "Ġpassion": 2435,
      "bey": 2436,
      "Ġchildren": 2437,
      "Ġdread": 2438,
      "Ġstrike": 2439,
      "Ġinstru": 2440,
      "Ġpretty": 2441,
      "ĠISABELLA": 2442,
      "IET": 2443,
      "OTH": 2444,
      "Ġmist": 2445,
      "Ġpap": 2446,
      "ĠMAL": 2447,
      "Ġeither": 2448,
      "Ġloving": 2449,
      "ĠFortune": 2450,
      "aken": 2451,
      "une": 2452,
      "osed": 2453,
      "ĠSuff": 2454,
      "ĠNever": 2455,
      "ĠJULIET": 2456,
      "sc": 2457,
      "Ġve": 2458,
      "ĠAb": 2459,
      "Ġform": 2460,
      "Ġliber": 2461,
      "Ġkings": 2462,
      "ĠKENT": 2463,
      "Ġmarriage": 2464,
      "den": 2465,
      "mon": 2466,
      "Ġlaugh": 2467,
      "Ġstru": 2468,
      "Ġsteal": 2469,
      "antage": 2470,
      "resh": 2471,
      "Ġconscience": 2472,
      "Ġlordship": 2473,
      "Ġspirits": 2474,
      "ĠLucius": 2475,
      "Ġoften": 2476,
      "IG": 2477,
      "SC": 2478,
      "over": 2479,
      "orth": 2480,
      "ĠTR": 2481,
      "Ġpit": 2482,
      "ĠCastle": 2483,
      "ĠPalace": 2484,
      "ilus": 2485,
      "Ġcalled": 2486,
      "Ġunderstand": 2487,
      "Ġseems": 2488,
      "Ġletters": 2489,
      "ĠLEONTES": 2490,
      "hilst": 2491,
      "ĠFalstaff": 2492,
      "ler": 2493,
      "Ġmorrow": 2494,
      "Ġbow": 2495,
      "ĠSIC": 2496,
      "ĠMac": 2497,
      "ĠPIST": 2498,
      "ĠDis": 2499,
      "asters": 2500,
      "artius": 2501,
      "Ġloved": 2502,
      "Ġaffection": 2503,
      "claim": 2504,
      "undred": 2505,
      "ĠPISTOL": 2506,
      "fully": 2507,
      "Ġag": 2508,
      "oured": 2509,
      "Ġmal": 2510,
      "Ġfing": 2511,
      "Ġfashi": 2512,
      "ĠSil": 2513,
      "ĠMen": 2514,
      "Ġdeeds": 2515,
      "ĠHelen": 2516,
      "Ġgod": 2517,
      "Ġresol": 2518,
      "YM": 2519,
      "mand": 2520,
      "Ġfat": 2521,
      "Ġcast": 2522,
      "ĠHarry": 2523,
      "Ġforce": 2524,
      "ĠFa": 2525,
      "alb": 2526,
      "ĠRoman": 2527,
      "umph": 2528,
      "ICLES": 2529,
      "Ġanything": 2530,
      "Ġpride": 2531,
      "ĠPERICLES": 2532,
      "YS": 2533,
      "ging": 2534,
      "ting": 2535,
      "ina": 2536,
      "Ġcase": 2537,
      "Ġlim": 2538,
      "ĠTy": 2539,
      "Ġhundred": 2540,
      "ingham": 2541,
      "Ġgot": 2542,
      "Ġbehind": 2543,
      "ĠCle": 2544,
      "Ġwouldst": 2545,
      "IOLA": 2546,
      "ĠVen": 2547,
      "ĠVIOLA": 2548,
      "Ġlabour": 2549,
      "Ġchur": 2550,
      "Ġsecond": 2551,
      "atisf": 2552,
      "Ġfortunes": 2553,
      "TUS": 2554,
      "Ġtent": 2555,
      "Ġser": 2556,
      "Ġwood": 2557,
      "Ġpost": 2558,
      "ĠSEN": 2559,
      "ĠFri": 2560,
      "raw": 2561,
      "ANS": 2562,
      "ESEUS": 2563,
      "ations": 2564,
      "ĠANG": 2565,
      "ĠTHESEUS": 2566,
      "Ġstreet": 2567,
      "ĠLEONATO": 2568,
      "LANDO": 2569,
      "ĠORLANDO": 2570,
      "night": 2571,
      "Ġsho": 2572,
      "Ġbit": 2573,
      "Ġcru": 2574,
      "arum": 2575,
      "ancy": 2576,
      "ĠBuck": 2577,
      "Ġeffect": 2578,
      "ĠPH": 2579,
      "fere": 2580,
      "ument": 2581,
      "Ġpoison": 2582,
      "Ġwitness": 2583,
      "Ġsouls": 2584,
      "Ġcheer": 2585,
      "Ġsecret": 2586,
      "Ġpossess": 2587,
      "Ġacqu": 2588,
      "AU": 2589,
      "IP": 2590,
      "MOG": 2591,
      "_,": 2592,
      "Ġsim": 2593,
      "ĠIMOG": 2594,
      "Ġfill": 2595,
      "ĠSPE": 2596,
      "Ġeas": 2597,
      "Ġdeliver": 2598,
      "iew": 2599,
      "arence": 2600,
      "Ġoffence": 2601,
      "Ġtreason": 2602,
      "Ġladies": 2603,
      "ĠOLIVIA": 2604,
      "Ġhurt": 2605,
      "ĠIMOGEN": 2606,
      "ona": 2607,
      "enge": 2608,
      "anc": 2609,
      "ĠST": 2610,
      "ĠHOR": 2611,
      "ĠEN": 2612,
      "ĠEm": 2613,
      "Ġreb": 2614,
      "ERN": 2615,
      "Ġexec": 2616,
      "Ġparts": 2617,
      "Ġadm": 2618,
      "Ġheads": 2619,
      "Ġchance": 2620,
      "ĠSuffolk": 2621,
      "ĠSICINIUS": 2622,
      "ĠSPEED": 2623,
      "eep": 2624,
      "Ġut": 2625,
      "Ġmir": 2626,
      "Ġfive": 2627,
      "Ġdied": 2628,
      "Ġop": 2629,
      "Ġhost": 2630,
      "Ġconqu": 2631,
      "Ġoffer": 2632,
      "bled": 2633,
      "ĠClarence": 2634,
      "Ġenemies": 2635,
      "ĠTroy": 2636,
      "ĠTroilus": 2637,
      "ĠServant": 2638,
      "ĠChrist": 2639,
      "ĠAthens": 2640,
      "ĠPompe": 2641,
      "iol": 2642,
      "king": 2643,
      "Ġtale": 2644,
      "Ġteach": 2645,
      "ises": 2646,
      "ited": 2647,
      "Ġpain": 2648,
      "Ġgift": 2649,
      "ĠSign": 2650,
      "ĠGU": 2651,
      "ANCE": 2652,
      "ieu": 2653,
      "ELO": 2654,
      "Ġmighty": 2655,
      "Ġlonger": 2656,
      "ĠLuc": 2657,
      "ĠPROSP": 2658,
      "ĠCHAR": 2659,
      "ĠBOY": 2660,
      "ĠParis": 2661,
      "Ġfashion": 2662,
      "ĠANGELO": 2663,
      "ĠPROSPERO": 2664,
      "BUS": 2665,
      "gers": 2666,
      "ub": 2667,
      "uri": 2668,
      "Ġdrown": 2669,
      "ĠHea": 2670,
      "Ġissue": 2671,
      "ARBUS": 2672,
      "Ġvow": 2673,
      "Ġalong": 2674,
      "Ġperceive": 2675,
      "ĠALL": 2676,
      "ĠBuckingham": 2677,
      ".âĢĻ": 2678,
      "pher": 2679,
      "ened": 2680,
      "Ġhealth": 2681,
      "ĠSal": 2682,
      "Ġrevere": 2683,
      "Ġlion": 2684,
      "Ġlov": 2685,
      "ĠBecause": 2686,
      "Ġshows": 2687,
      "OBARBUS": 2688,
      "Ġexcellent": 2689,
      "ĠENOBARBUS": 2690,
      "ĠPompey": 2691,
      "EPH": 2692,
      "cus": 2693,
      "Ġap": 2694,
      "Ġdin": 2695,
      "eding": 2696,
      "Ġbeard": 2697,
      "ĠOff": 2698,
      "ider": 2699,
      "ĠKnow": 2700,
      "Ġjo": 2701,
      "Ġvalour": 2702,
      "Ġbuy": 2703,
      "Ġbirth": 2704,
      "Ġtitle": 2705,
      "chan": 2706,
      "ners": 2707,
      "Ġtakes": 2708,
      "ĠInd": 2709,
      "ĠTalb": 2710,
      "ety": 2711,
      "ĠHam": 2712,
      "Ġnoise": 2713,
      "aunt": 2714,
      "Ġworship": 2715,
      "Ġunk": 2716,
      "Ġleast": 2717,
      "peror": 2718,
      "Ġbears": 2719,
      "ĠCASSIO": 2720,
      "They": 2721,
      "ĠSOLD": 2722,
      "QU": 2723,
      "under": 2724,
      "Ġsatisf": 2725,
      "ĠSIL": 2726,
      "ĠHold": 2727,
      "ales": 2728,
      "Ġshar": 2729,
      "ils": 2730,
      "ONE": 2731,
      "othing": 2732,
      "olph": 2733,
      "Ġworst": 2734,
      "Ġunw": 2735,
      "Ġqual": 2736,
      "Ġquoth": 2737,
      "ATR": 2738,
      "ATIO": 2739,
      "ages": 2740,
      "Ġsmall": 2741,
      "CTOR": 2742,
      "Ġchoose": 2743,
      "ĠLUCIO": 2744,
      "twas": 2745,
      "ealous": 2746,
      "Ġpatient": 2747,
      "Ġpubl": 2748,
      "ĠHORATIO": 2749,
      "so": 2750,
      "ual": 2751,
      "ze": 2752,
      "Ġfine": 2753,
      "Ġocc": 2754,
      "ĠBes": 2755,
      "ĠCON": 2756,
      "ĠFord": 2757,
      "Ġseal": 2758,
      "rust": 2759,
      "Ġourselves": 2760,
      "Ġcommend": 2761,
      "Ġkept": 2762,
      "Ġpresence": 2763,
      "ĠAntonio": 2764,
      "Ġpromise": 2765,
      "ĠEarl": 2766,
      "ĠSOLDIER": 2767,
      "Ġer": 2768,
      "Ġign": 2769,
      "Ġwed": 2770,
      "rer": 2771,
      "Ġpi": 2772,
      "ley": 2773,
      "ĠBet": 2774,
      "ĠBard": 2775,
      "ĠCELIA": 2776,
      "Ġforward": 2777,
      "Ġforget": 2778,
      "ĠFO": 2779,
      "ural": 2780,
      "Ġview": 2781,
      "OLY": 2782,
      "Ġcurse": 2783,
      "Ġentertain": 2784,
      "ĠHighness": 2785,
      "ĠSignior": 2786,
      "ĠTalbot": 2787,
      "ĠHamlet": 2788,
      "ĠBardolph": 2789,
      "BAN": 2790,
      "SE": 2791,
      "nown": 2792,
      "Ġdull": 2793,
      "ĠHark": 2794,
      "ĠBER": 2795,
      "ĠCy": 2796,
      "ĠMine": 2797,
      "ĠFirst": 2798,
      "right": 2799,
      "Ġherself": 2800,
      "ĠKate": 2801,
      "ume": 2802,
      "Ġsafe": 2803,
      "Ġmarch": 2804,
      "Ġdelight": 2805,
      "ĠJULIA": 2806,
      "Ġpaper": 2807,
      "Th": 2808,
      "Ġsor": 2809,
      "Ġwent": 2810,
      "Ġbab": 2811,
      "Ġfresh": 2812,
      "anio": 2813,
      "illes": 2814,
      "Ġsole": 2815,
      "Ġsucc": 2816,
      "rupt": 2817,
      "ify": 2818,
      "Ġgoing": 2819,
      "Ġarg": 2820,
      "ĠVal": 2821,
      "Ġflatter": 2822,
      "Ġwrite": 2823,
      "Ġfools": 2824,
      "Ġconsent": 2825,
      "ĠPRINC": 2826,
      "Ġcarry": 2827,
      "Ġdepart": 2828,
      "Ġdangerous": 2829,
      "ĠTitus": 2830,
      "ĠBEATR": 2831,
      "ĠBEATRICE": 2832,
      "sp": 2833,
      "Ġtor": 2834,
      "Ġsn": 2835,
      "Ġmid": 2836,
      "Ġfetch": 2837,
      "Ġdri": 2838,
      "ĠSaint": 2839,
      "Ġangry": 2840,
      "Ġvain": 2841,
      "Ġneigh": 2842,
      "Ġblow": 2843,
      "ĠMark": 2844,
      "Ġfoolish": 2845,
      "Ġvirtuous": 2846,
      "Ġorder": 2847,
      "BUR": 2848,
      "aves": 2849,
      "gin": 2850,
      "sper": 2851,
      "ude": 2852,
      "Ġyear": 2853,
      "ingly": 2854,
      "ĠHER": 2855,
      "ĠCardinal": 2856,
      "ĠMUR": 2857,
      "ĠMartius": 2858,
      "ĠPOM": 2859,
      "Ġstar": 2860,
      "ĠGu": 2861,
      "ilia": 2862,
      "Ġround": 2863,
      "Ġproceed": 2864,
      "ĠSold": 2865,
      "Ġbanish": 2866,
      "Ġfaults": 2867,
      "Ġviol": 2868,
      "ĠLeon": 2869,
      "Ġwisdom": 2870,
      "ĠPRINCESS": 2871,
      "ĠMURDER": 2872,
      "ax": 2873,
      "Ġbrief": 2874,
      "orge": 2875,
      "Ġthrow": 2876,
      "ĠSAL": 2877,
      "ĠGON": 2878,
      "iles": 2879,
      "Ġamong": 2880,
      "elcome": 2881,
      "ĠAngel": 2882,
      "twere": 2883,
      "IZAB": 2884,
      "Ġquickly": 2885,
      "TRAM": 2886,
      "ĠELIZAB": 2887,
      "ĠHeaven": 2888,
      "ĠBERTRAM": 2889,
      "ĠELIZABETH": 2890,
      "gare": 2891,
      "su": 2892,
      "ĠTw": 2893,
      "ĠSom": 2894,
      "leep": 2895,
      "ĠBAST": 2896,
      "ĠMessenger": 2897,
      "ĠNothing": 2898,
      "cted": 2899,
      "Ġblind": 2900,
      "icked": 2901,
      "ledge": 2902,
      "ĠARMA": 2903,
      "Ġgreen": 2904,
      "ĠRosal": 2905,
      "ĠFaith": 2906,
      "ĠPOMPE": 2907,
      "ĠAngelo": 2908,
      "ĠBASTARD": 2909,
      "ĠARMADO": 2910,
      "broke": 2911,
      "Ġbreat": 2912,
      "Ġhorn": 2913,
      "ĠAPE": 2914,
      "Ġpure": 2915,
      "ato": 2916,
      "ĠHOT": 2917,
      "Ġforsw": 2918,
      "ĠNUR": 2919,
      "Ġjealous": 2920,
      "Ġquiet": 2921,
      "Ġtroth": 2922,
      "MANTUS": 2923,
      "Ġhumour": 2924,
      "ĠEDGAR": 2925,
      "Ġgolden": 2926,
      "SPUR": 2927,
      "ĠCOUNTESS": 2928,
      "ĠPOMPEY": 2929,
      "ĠAPEMANTUS": 2930,
      "ĠHOTSPUR": 2931,
      "ĠNURSE": 2932,
      "gl": 2933,
      "eness": 2934,
      "Ġpiece": 2935,
      "Ġgates": 2936,
      "ĠBARD": 2937,
      "ĠPO": 2938,
      "asion": 2939,
      "used": 2940,
      "Ġshake": 2941,
      "ĠJove": 2942,
      "OLPH": 2943,
      "ĠUnder": 2944,
      "Ġchast": 2945,
      "ĠTHE": 2946,
      "Ġblessed": 2947,
      "Ġbright": 2948,
      "Ġcruel": 2949,
      "ĠMURDERER": 2950,
      "ĠBARDOLPH": 2951,
      "BAST": 2952,
      "eem": 2953,
      "inius": 2954,
      "Ġwon": 2955,
      "erset": 2956,
      "anch": 2957,
      "ature": 2958,
      "Ġinv": 2959,
      "ters": 2960,
      "Ġstud": 2961,
      "ames": 2962,
      "Ġconce": 2963,
      "Ġsac": 2964,
      "ago": 2965,
      "Ġwhore": 2966,
      "Ġprayers": 2967,
      "ĠSEBAST": 2968,
      "ULET": 2969,
      "Ġpract": 2970,
      "Ġlearn": 2971,
      "Ġprinces": 2972,
      "ĠCAPULET": 2973,
      "ĠSEBASTIAN": 2974,
      "FEW": 2975,
      "Ġwast": 2976,
      "Ġda": 2977,
      "ĠAp": 2978,
      "alam": 2979,
      "Ġdec": 2980,
      "ĠRE": 2981,
      "ĠRi": 2982,
      "Ġnob": 2983,
      "ĠThink": 2984,
      "ility": 2985,
      "ilty": 2986,
      "Ġjew": 2987,
      "osition": 2988,
      "bert": 2989,
      "ĠBrit": 2990,
      "ĠLAFEW": 2991,
      "Ġquarrel": 2992,
      "BURY": 2993,
      "ĠSomerset": 2994,
      "He": 2995,
      "joy": 2996,
      "ug": 2997,
      "inion": 2998,
      "Ġmatch": 2999,
      "Ġcamp": 3000,
      "ĠTom": 3001,
      "Ġevil": 3002,
      "ĠFair": 3003,
      "idow": 3004,
      "ĠGreat": 3005,
      "Ġprot": 3006,
      "Ġsaf": 3007,
      "ATOR": 3008,
      "ILL": 3009,
      "Ġdeserve": 3010,
      "ocks": 3011,
      "Ġsmo": 3012,
      "Ġtemp": 3013,
      "ĠWhom": 3014,
      "Ġsharp": 3015,
      "BRO": 3016,
      "ding": 3017,
      "ror": 3018,
      "ys": 3019,
      "Ġtaken": 3020,
      "Ġmasters": 3021,
      "ĠInto": 3022,
      "Ġfrown": 3023,
      "Ġfier": 3024,
      "Ġdest": 3025,
      "Ġmeasure": 3026,
      "Ġele": 3027,
      "ĠDAU": 3028,
      "ĠGree": 3029,
      "iled": 3030,
      "EST": 3031,
      "ONIUS": 3032,
      "icers": 3033,
      "icles": 3034,
      "Ġprov": 3035,
      "Ġfearful": 3036,
      "itted": 3037,
      "Ġcontin": 3038,
      "Ġfeed": 3039,
      "Ġawhile": 3040,
      "ĠBASS": 3041,
      "Ġbitter": 3042,
      "BROKE": 3043,
      "WAL": 3044,
      "ald": 3045,
      "Ġver": 3046,
      "Ġsch": 3047,
      "Ġdi": 3048,
      "ĠAch": 3049,
      "Ġanon": 3050,
      "Ġthence": 3051,
      "Ġenc": 3052,
      "ĠMargare": 3053,
      "Ġlaid": 3054,
      "force": 3055,
      "Ġcounter": 3056,
      "Ġsummer": 3057,
      "pherd": 3058,
      "NE": 3059,
      "mbl": 3060,
      "non": 3061,
      "Ġcred": 3062,
      "arge": 3063,
      "ĠCam": 3064,
      "Ġstood": 3065,
      "icul": 3066,
      "ĠStay": 3067,
      "Ġarmy": 3068,
      "Ġdrum": 3069,
      "ĠUnless": 3070,
      "Ġsorry": 3071,
      "VIUS": 3072,
      "oes": 3073,
      "ts": 3074,
      "Ġsus": 3075,
      "Ġmed": 3076,
      "itors": 3077,
      "ĠWelcome": 3078,
      "ĠCAM": 3079,
      "ĠLO": 3080,
      "Ġstor": 3081,
      "Ġstop": 3082,
      "ided": 3083,
      "ease": 3084,
      "ĠThose": 3085,
      "icer": 3086,
      "Ġblame": 3087,
      "ĠJew": 3088,
      "Ġhonesty": 3089,
      "Ġalive": 3090,
      "Ġfled": 3091,
      "Ġgreater": 3092,
      "ĠĠĠĠĠĠĠĠĠĠĠĠ": 3093,
      "Ġcalls": 3094,
      "Ġglory": 3095,
      "centio": 3096,
      "Ġshadow": 3097,
      "Ġpublic": 3098,
      "ĠMargaret": 3099,
      "ef": 3100,
      "ked": 3101,
      "Ġsort": 3102,
      "Ġcir": 3103,
      "Ġlend": 3104,
      "arch": 3105,
      "Ġpains": 3106,
      "stance": 3107,
      "chief": 3108,
      "ĠMER": 3109,
      "ĠPA": 3110,
      "ĠGe": 3111,
      "ENS": 3112,
      "Ġshape": 3113,
      "though": 3114,
      "Ġmanner": 3115,
      "Ġplague": 3116,
      "ĠWithin": 3117,
      "Ġremain": 3118,
      "Ġglass": 3119,
      "Ġcolour": 3120,
      "Ġcheeks": 3121,
      "Ġdishon": 3122,
      "Ġseveral": 3123,
      "Ġdinner": 3124,
      "here": 3125,
      "Ġsland": 3126,
      "Ġmut": 3127,
      "Ġwhi": 3128,
      "read": 3129,
      "Ġbastard": 3130,
      "isho": 3131,
      "Ġlist": 3132,
      "vey": 3133,
      "Ġinno": 3134,
      "ĠMont": 3135,
      "ĠLYS": 3136,
      "Ġref": 3137,
      "ĠDEM": 3138,
      "Ġours": 3139,
      "Ġswift": 3140,
      "ared": 3141,
      "ĠWithout": 3142,
      "ĠANDR": 3143,
      "ĠANNE": 3144,
      "Ġbanished": 3145,
      "ETRIUS": 3146,
      "ĠCassius": 3147,
      "Ġforgot": 3148,
      "Ġcheek": 3149,
      "Ġscarce": 3150,
      "ĠTRANIO": 3151,
      "ĠAchilles": 3152,
      "ĠDEMETRIUS": 3153,
      "phe": 3154,
      "rate": 3155,
      "ĠAlex": 3156,
      "ĠSen": 3157,
      "Ġmel": 3158,
      "Ġequ": 3159,
      "ĠDost": 3160,
      "Ġconcl": 3161,
      "unning": 3162,
      "ITES": 3163,
      "ĠTHERS": 3164,
      "Ġbrain": 3165,
      "Ġtrib": 3166,
      "ĠTHERSITES": 3167,
      "ians": 3168,
      "Ġobey": 3169,
      "Ġthro": 3170,
      "ĠADR": 3171,
      "Ġgent": 3172,
      "ĠBoth": 3173,
      "ĠPoor": 3174,
      "ANO": 3175,
      "Ġproof": 3176,
      "Ġproper": 3177,
      "Ġcaptain": 3178,
      "ĠFRIAR": 3179,
      "Ġignor": 3180,
      "ĠSoldiers": 3181,
      "afe": 3182,
      "cal": 3183,
      "cul": 3184,
      "gy": 3185,
      "mn": 3186,
      "head": 3187,
      "Ġwounds": 3188,
      "Ġpet": 3189,
      "ĠCont": 3190,
      "ĠPri": 3191,
      "ĠPOST": 3192,
      "entine": 3193,
      "Ġfaire": 3194,
      "Ġamb": 3195,
      "OLS": 3196,
      "hys": 3197,
      "Ġgrand": 3198,
      "Ġrain": 3199,
      "ĠArt": 3200,
      "airs": 3201,
      "Ġobs": 3202,
      "Ġwretched": 3203,
      "Ġwalls": 3204,
      "ĠHOSTESS": 3205,
      "VANS": 3206,
      "loy": 3207,
      "more": 3208,
      "mia": 3209,
      "ob": 3210,
      "Ġtear": 3211,
      "Ġtry": 3212,
      "itiz": 3213,
      "Ġdif": 3214,
      "ane": 3215,
      "Ġgross": 3216,
      "Ġbeha": 3217,
      "ĠFie": 3218,
      "Ġwealth": 3219,
      "ĠEre": 3220,
      "ĠEVANS": 3221,
      "Ġgovern": 3222,
      "cient": 3223,
      "THUM": 3224,
      "Ġboys": 3225,
      "Ġmonth": 3226,
      "Ġinstant": 3227,
      "BERLAND": 3228,
      "Ġprisoner": 3229,
      "ĠNORTHUM": 3230,
      "ĠMALVOLIO": 3231,
      "Ġstruck": 3232,
      "ĠSENATOR": 3233,
      "Ġsuccess": 3234,
      "ĠANDREW": 3235,
      "hysic": 3236,
      "ĠNORTHUMBERLAND": 3237,
      "bed": 3238,
      "sed": 3239,
      "Ġes": 3240,
      "Ġtaste": 3241,
      "Ġay": 3242,
      "Ġbroke": 3243,
      "Ġdies": 3244,
      "Ġthither": 3245,
      "ĠAG": 3246,
      "anus": 3247,
      "Ġgain": 3248,
      "ators": 3249,
      "Ġinj": 3250,
      "ĠHu": 3251,
      "Ġur": 3252,
      "ĠPo": 3253,
      "Ġstain": 3254,
      "Ġshore": 3255,
      "ENTIO": 3256,
      "Ġfellows": 3257,
      "Ġdouble": 3258,
      "Ġrequest": 3259,
      "Ġtrumpet": 3260,
      "ĠPOLONIUS": 3261,
      "Ġchurch": 3262,
      "Ġwine": 3263,
      "Ġwert": 3264,
      "Ġcre": 3265,
      "Ġhun": 3266,
      "ĠMoor": 3267,
      "ĠPle": 3268,
      "iful": 3269,
      "arden": 3270,
      "Ġrose": 3271,
      "Ġfolly": 3272,
      "ĠAnne": 3273,
      "perate": 3274,
      "Ġdrunk": 3275,
      "Ġdefend": 3276,
      "Ġcondition": 3277,
      "Ġclear": 3278,
      "ĠCoriol": 3279,
      "alamon": 3280,
      "DE": 3281,
      "cite": 3282,
      "ker": 3283,
      "Ġbrow": 3284,
      "Ġbare": 3285,
      "erc": 3286,
      "ĠIago": 3287,
      "Ġfi": 3288,
      "Ġcatch": 3289,
      "Ġcunning": 3290,
      "Ġheld": 3291,
      "omp": 3292,
      "Ġbecause": 3293,
      "ĠBass": 3294,
      "ĠMOTH": 3295,
      "ĠFo": 3296,
      "Ġweary": 3297,
      "ĠLest": 3298,
      "Ġdeare": 3299,
      "Ġdemand": 3300,
      "Ġvir": 3301,
      "Ġgoodly": 3302,
      "Ġrough": 3303,
      "Ġflowers": 3304,
      "Ġleg": 3305,
      "Ġwits": 3306,
      "Ġbeggar": 3307,
      "Ġpurse": 3308,
      "Ġimport": 3309,
      "Ġmotion": 3310,
      "ĠHERM": 3311,
      "Ġcirc": 3312,
      "BEL": 3313,
      "og": 3314,
      "Ġauth": 3315,
      "Ġsong": 3316,
      "Ġsix": 3317,
      "Ġbones": 3318,
      "Ġfaint": 3319,
      "Ġdwell": 3320,
      "Ġloud": 3321,
      "Ġpowers": 3322,
      "Ġheat": 3323,
      "Ġmere": 3324,
      "ĠCOST": 3325,
      "ĠCYM": 3326,
      "ĠESC": 3327,
      "Ġdece": 3328,
      "Ġspring": 3329,
      "Ġvan": 3330,
      "ĠJack": 3331,
      "aked": 3332,
      "ETER": 3333,
      "ressed": 3334,
      "Ġhearing": 3335,
      "Ġtrans": 3336,
      "Ġways": 3337,
      "Ġdrawn": 3338,
      "Ġwanton": 3339,
      "Ġsilver": 3340,
      "ference": 3341,
      "Ġopinion": 3342,
      "BELINE": 3343,
      "ĠCOSTARD": 3344,
      "ĠCYMBELINE": 3345,
      "LEN": 3346,
      "_]": 3347,
      "cer": 3348,
      "Ġfame": 3349,
      "ĠAfter": 3350,
      "Ġpun": 3351,
      "vell": 3352,
      "atri": 3353,
      "edy": 3354,
      "ĠHouse": 3355,
      "ĠBol": 3356,
      "host": 3357,
      "Ġunf": 3358,
      "Ġrise": 3359,
      "Ġhadst": 3360,
      "Ġfears": 3361,
      "Ġprecious": 3362,
      "Ġcompl": 3363,
      "Ġbestow": 3364,
      "Ġpriest": 3365,
      "ĠBring": 3366,
      "Ġfalls": 3367,
      "hamber": 3368,
      "Ġembrace": 3369,
      "Ġexcuse": 3370,
      "ĠKATHERINA": 3371,
      "GH": 3372,
      "MUN": 3373,
      "bus": 3374,
      "zen": 3375,
      "Ġmethinks": 3376,
      "Ġwicked": 3377,
      "Ġdance": 3378,
      "ĠTower": 3379,
      "ĠAg": 3380,
      "ingbroke": 3381,
      "ĠWilt": 3382,
      "ĠMe": 3383,
      "ĠPet": 3384,
      "rac": 3385,
      "usion": 3386,
      "ĠKeep": 3387,
      "Ġfail": 3388,
      "ifford": 3389,
      "ILLO": 3390,
      "Ġhighness": 3391,
      "Ġmonst": 3392,
      "ĠEDMUN": 3393,
      "Ġrememb": 3394,
      "Ġborne": 3395,
      "Ġforbid": 3396,
      "Ġliberty": 3397,
      "ĠIndeed": 3398,
      "ĠGeorge": 3399,
      "ĠBolingbroke": 3400,
      "ĠEDMUND": 3401,
      "TEN": 3402,
      "with": 3403,
      "Ġaught": 3404,
      "Ġmour": 3405,
      "reed": 3406,
      "ĠIm": 3407,
      "Ġcorn": 3408,
      "enter": 3409,
      "ĠWest": 3410,
      "ĠWhile": 3411,
      "Ġeld": 3412,
      "ĠPalamon": 3413,
      "ash": 3414,
      "Ġstars": 3415,
      "idius": 3416,
      "ĠDem": 3417,
      "Ġaside": 3418,
      "ards": 3419,
      "Ġneck": 3420,
      "icious": 3421,
      "Ġknowledge": 3422,
      "ALUS": 3423,
      "ĠULY": 3424,
      "Ġrude": 3425,
      "ission": 3426,
      "SSES": 3427,
      "Ġtongues": 3428,
      "aced": 3429,
      "Ġcourtes": 3430,
      "ize": 3431,
      "Ġsteel": 3432,
      "comes": 3433,
      "Ġcreature": 3434,
      "Ġprivate": 3435,
      "ishop": 3436,
      "ĠESCALUS": 3437,
      "ĠULYSSES": 3438,
      "?âĢĶ": 3439,
      "CK": 3440,
      "DUFF": 3441,
      "YLO": 3442,
      "beth": 3443,
      "eat": 3444,
      "min": 3445,
      "Ġship": 3446,
      "isbury": 3447,
      "ĠTO": 3448,
      "Ġthreat": 3449,
      "ĠWOLS": 3450,
      "ĠCould": 3451,
      "ĠDau": 3452,
      "ĠDUCH": 3453,
      "Ġancient": 3454,
      "ander": 3455,
      "ĠUnto": 3456,
      "Ġperform": 3457,
      "oved": 3458,
      "ĠShallow": 3459,
      "ĠClifford": 3460,
      "ISH": 3461,
      "Ġmaiden": 3462,
      "phin": 3463,
      "ĠMACDUFF": 3464,
      "ĠSHYLO": 3465,
      "Ġprincely": 3466,
      "otten": 3467,
      "Ġlearned": 3468,
      "Ġchoice": 3469,
      "Ġvisit": 3470,
      "Ġjudgement": 3471,
      "ĠBOYET": 3472,
      "ĠSalisbury": 3473,
      "ĠADRIANA": 3474,
      "ĠWOLSEY": 3475,
      "ĠDauphin": 3476,
      "ĠDUCHESS": 3477,
      "ĠSHYLOCK": 3478,
      "HUM": 3479,
      "dain": 3480,
      "ek": 3481,
      "sh": 3482,
      "vail": 3483,
      "Ġfru": 3484,
      "Ġfig": 3485,
      "Ġphysic": 3486,
      "Ġins": 3487,
      "Ġbend": 3488,
      "ĠLea": 3489,
      "ria": 3490,
      "rius": 3491,
      "Ġsto": 3492,
      "Ġdebt": 3493,
      "ERD": 3494,
      "Ġshouldst": 3495,
      "unes": 3496,
      "Ġrogue": 3497,
      "ĠCaius": 3498,
      "ĠMARIA": 3499,
      "ĠNorth": 3500,
      "Ġsmile": 3501,
      "ĠHero": 3502,
      "Ġholds": 3503,
      "Ġguilty": 3504,
      "Ġpersu": 3505,
      "LIFF": 3506,
      "Ġwait": 3507,
      "Ġterms": 3508,
      "umberland": 3509,
      "chant": 3510,
      "ĠJuliet": 3511,
      "orthy": 3512,
      "ĠMacbeth": 3513,
      "ancaster": 3514,
      "ĠPOSTHUM": 3515,
      "ĠPOSTHUMUS": 3516,
      "TI": 3517,
      "TIUS": 3518,
      "jo": 3519,
      "ua": 3520,
      "Ġir": 3521,
      "ining": 3522,
      "orous": 3523,
      "ĠIACH": 3524,
      "Ġdue": 3525,
      "Ġthird": 3526,
      "ĠHORT": 3527,
      "utation": 3528,
      "ĠMethinks": 3529,
      "ĠLancaster": 3530,
      "Ġstory": 3531,
      "Ġspend": 3532,
      "ellow": 3533,
      "Ġknock": 3534,
      "Ġvent": 3535,
      "Ġflower": 3536,
      "Ġfoes": 3537,
      "Ġgreatness": 3538,
      "ways": 3539,
      "Ġlegs": 3540,
      "Ġleaves": 3541,
      "Ġsmell": 3542,
      "IMO": 3543,
      "ĠCLOTEN": 3544,
      "Ġgrows": 3545,
      "Ġforest": 3546,
      "Ġowe": 3547,
      "ĠValentine": 3548,
      "ancholy": 3549,
      "itizens": 3550,
      "ĠIACHIMO": 3551,
      "ĠHORTENS": 3552,
      "GE": 3553,
      "lic": 3554,
      "mund": 3555,
      "woman": 3556,
      "Ġlam": 3557,
      "Ġlarge": 3558,
      "Ġhunt": 3559,
      "omed": 3560,
      "cell": 3561,
      "ays": 3562,
      "ĠMade": 3563,
      "ĠLo": 3564,
      "ĠGre": 3565,
      "Ġkins": 3566,
      "Ġdeal": 3567,
      "Ġnecess": 3568,
      "Ġblows": 3569,
      "Ġenjoy": 3570,
      "Ġexpect": 3571,
      "Ġwherefore": 3572,
      "Ġhonours": 3573,
      "ĠWherein": 3574,
      "Ġcourage": 3575,
      "Ġhumble": 3576,
      "Ġadvantage": 3577,
      "Ġobedi": 3578,
      "Ġgreet": 3579,
      "Ġdrop": 3580,
      "IE": 3581,
      "fer": 3582,
      "Ġdry": 3583,
      "Ġlest": 3584,
      "ĠTr": 3585,
      "Ġthunder": 3586,
      "Ġpol": 3587,
      "cend": 3588,
      "Ġformer": 3589,
      "Ġyourselves": 3590,
      "Ġmanners": 3591,
      "ALB": 3592,
      "Ġsirrah": 3593,
      "ĠVer": 3594,
      "Ġdism": 3595,
      "Ġquite": 3596,
      "Ġfoe": 3597,
      "Ġwrath": 3598,
      "Ġclaim": 3599,
      "Ġrare": 3600,
      "ĠQUICK": 3601,
      "Ġendure": 3602,
      "Ġwinter": 3603,
      "ĠHastings": 3604,
      "Ġtrouble": 3605,
      "ronic": 3606,
      "Ġauthor": 3607,
      "ĠQUICKLY": 3608,
      "Re": 3609,
      "With": 3610,
      "Ġbount": 3611,
      "Ġbene": 3612,
      "Ġbott": 3613,
      "ĠACH": 3614,
      "Ġheels": 3615,
      "ĠBOL": 3616,
      "Ġmem": 3617,
      "tern": 3618,
      "Ġdeg": 3619,
      "Ġamaz": 3620,
      "STONE": 3621,
      "INGBROKE": 3622,
      "Ġunb": 3623,
      "Ġunp": 3624,
      "ĠVol": 3625,
      "ILLES": 3626,
      "Ġimag": 3627,
      "Ġcontr": 3628,
      "Ġwrongs": 3629,
      "ĠEdmund": 3630,
      "UCHSTONE": 3631,
      "ĠROSALINE": 3632,
      "Ġdamned": 3633,
      "Ġemperor": 3634,
      "Ġkneel": 3635,
      "ĠJAQU": 3636,
      "ĠChristian": 3637,
      "chance": 3638,
      "ĠRosalind": 3639,
      "Ġsafety": 3640,
      "Ġmelancholy": 3641,
      "ĠTOUCHSTONE": 3642,
      "ĠACHILLES": 3643,
      "ĠBOLINGBROKE": 3644,
      "ait": 3645,
      "bes": 3646,
      "con": 3647,
      "cil": 3648,
      "dle": 3649,
      "jax": 3650,
      "ued": 3651,
      "Ġed": 3652,
      "Ġsens": 3653,
      "Ġwench": 3654,
      "Ġthief": 3655,
      "Ġhor": 3656,
      "Ġgir": 3657,
      "Ġmeat": 3658,
      "ĠPol": 3659,
      "Ġshepherd": 3660,
      "istol": 3661,
      "Ġheavenly": 3662,
      "ĠPrithee": 3663,
      "Ġswords": 3664,
      "ĠArcite": 3665,
      "Ġskill": 3666,
      "Ġtyrant": 3667,
      "ĠFriar": 3668,
      "ĠLeonato": 3669,
      "ĠTwo": 3670,
      "ĠRich": 3671,
      "ĠBASSANIO": 3672,
      "GAN": 3673,
      "IEL": 3674,
      "Ġaid": 3675,
      "ouds": 3676,
      "Ġfond": 3677,
      "Ġod": 3678,
      "Ġnay": 3679,
      "aring": 3680,
      "Ġgate": 3681,
      "ĠHence": 3682,
      "ĠHAST": 3683,
      "ĠCOM": 3684,
      "Ġweap": 3685,
      "ĠLy": 3686,
      "Ġstuff": 3687,
      "ident": 3688,
      "ract": 3689,
      "ĠDO": 3690,
      "Ġlover": 3691,
      "Ġanger": 3692,
      "Ġspent": 3693,
      "arent": 3694,
      "INGS": 3695,
      "Ġproclaim": 3696,
      "Ġintend": 3697,
      "Ġbearing": 3698,
      "ianca": 3699,
      "Ġkeeps": 3700,
      "acle": 3701,
      "Ġsometime": 3702,
      "angu": 3703,
      "Ġdamn": 3704,
      "ĠVII": 3705,
      "Ġoccasion": 3706,
      "ĠBesides": 3707,
      "ĠREGAN": 3708,
      "ĠCAMILLO": 3709,
      "ĠNorthumberland": 3710,
      "ĠHASTINGS": 3711,
      "folk": 3712,
      "gle": 3713,
      "mit": 3714,
      "rat": 3715,
      "Ġfie": 3716,
      "Ġcost": 3717,
      "ĠTALB": 3718,
      "Ġnaught": 3719,
      "ĠAjax": 3720,
      "Ġheed": 3721,
      "ĠWAT": 3722,
      "etrius": 3723,
      "ĠBianca": 3724,
      "Ġmeant": 3725,
      "ĠFore": 3726,
      "Ġrevol": 3727,
      "ĠRem": 3728,
      "Ġmayst": 3729,
      "Ġdesires": 3730,
      "Ġperfect": 3731,
      "ĠMars": 3732,
      "Ġcompan": 3733,
      "Ġbrothers": 3734,
      "orses": 3735,
      "ĠNorfolk": 3736,
      "Ġthrone": 3737,
      "ĠSERVING": 3738,
      "ĠCORN": 3739,
      "ĠPercy": 3740,
      "Ġoaths": 3741,
      "ointed": 3742,
      "oteus": 3743,
      "Ġidle": 3744,
      "Ġjoin": 3745,
      "Ġsolemn": 3746,
      "Ġvirgin": 3747,
      "ĠDemetrius": 3748,
      "Reads": 3749,
      "ĠTALBOT": 3750,
      "ĠWATCH": 3751,
      "lo": 3752,
      "rim": 3753,
      "Ġwidow": 3754,
      "Ġfood": 3755,
      "Ġfee": 3756,
      "atra": 3757,
      "ĠSomet": 3758,
      "Ġmend": 3759,
      "Ġstart": 3760,
      "Ġnose": 3761,
      "ical": 3762,
      "Ġusur": 3763,
      "Ġrans": 3764,
      "Ġmadness": 3765,
      "ustom": 3766,
      "Ġdesert": 3767,
      "Ġleis": 3768,
      "lip": 3769,
      "ĠProteus": 3770,
      "opatra": 3771,
      "Ġvict": 3772,
      "Ġemploy": 3773,
      "ĠCapul": 3774,
      "ĠVenice": 3775,
      "IPP": 3776,
      "Ġsimple": 3777,
      "ĠFollow": 3778,
      "ĠHORTENSIO": 3779,
      "NIA": 3780,
      "ient": 3781,
      "iance": 3782,
      "kin": 3783,
      "mble": 3784,
      "ta": 3785,
      "Ġtail": 3786,
      "rehe": 3787,
      "Ġbaw": 3788,
      "ising": 3789,
      "oral": 3790,
      "Ġfury": 3791,
      "Ġlament": 3792,
      "ĠBid": 3793,
      "ĠBra": 3794,
      "ourse": 3795,
      "ĠGet": 3796,
      "Ġdeceive": 3797,
      "END": 3798,
      "INS": 3799,
      "ĠKent": 3800,
      "Ġspite": 3801,
      "ANC": 3802,
      "Ġconj": 3803,
      "ppy": 3804,
      "Ġsail": 3805,
      "Ġwhence": 3806,
      "Ġabro": 3807,
      "Ġbetray": 3808,
      "ĠSirrah": 3809,
      "ĠMarcus": 3810,
      "Ġguilt": 3811,
      "Ġmonster": 3812,
      "Ġprofess": 3813,
      "Ġthrice": 3814,
      "ĠFRIEND": 3815,
      "Ġbroken": 3816,
      "Ġmalice": 3817,
      "Ġfinger": 3818,
      "ĠCleopatra": 3819,
      "Ġutter": 3820,
      "Ġargument": 3821,
      "Ġprotest": 3822,
      "Ġschool": 3823,
      "IX": 3824,
      "PTI": 3825,
      "UELL": 3826,
      "cing": 3827,
      "wise": 3828,
      "Ġwond": 3829,
      "Ġborrow": 3830,
      "orious": 3831,
      "Ġfle": 3832,
      "Ġfought": 3833,
      "Ġduke": 3834,
      "Ġcat": 3835,
      "Ġcure": 3836,
      "Ġhid": 3837,
      "Ġtop": 3838,
      "ĠHal": 3839,
      "ĠPy": 3840,
      "ĠLANCE": 3841,
      "Ġdoom": 3842,
      "Ġknee": 3843,
      "Ġvows": 3844,
      "allow": 3845,
      "ump": 3846,
      "Ġuns": 3847,
      "IAM": 3848,
      "ATIAN": 3849,
      "Ġflood": 3850,
      "Ġparticul": 3851,
      "Ġfollows": 3852,
      "Ġtrain": 3853,
      "ĠGRATIAN": 3854,
      "ĠBAPTI": 3855,
      "ĠJAIL": 3856,
      "ĠFLUELL": 3857,
      "ĠCharles": 3858,
      "ĠFOOL": 3859,
      "Ġcourtesy": 3860,
      "Within": 3861,
      "ĠSERVINGMAN": 3862,
      "ĠGRATIANO": 3863,
      "ĠBAPTISTA": 3864,
      "ĠFLUELLEN": 3865,
      "vish": 3866,
      "yond": 3867,
      "Ġtune": 3868,
      "Ġbas": 3869,
      "Ġfew": 3870,
      "Ġdust": 3871,
      "Ġcried": 3872,
      "ĠAUT": 3873,
      "Ġport": 3874,
      "Ġgaz": 3875,
      "ĠBoy": 3876,
      "ĠBened": 3877,
      "ĠMON": 3878,
      "ĠPardon": 3879,
      "ĠLong": 3880,
      "Ġreign": 3881,
      "Ġones": 3882,
      "ĠDi": 3883,
      "ĠDou": 3884,
      "Ġlovers": 3885,
      "ified": 3886,
      "elt": 3887,
      "Ġunless": 3888,
      "Ġtwice": 3889,
      "cian": 3890,
      "Ġwherein": 3891,
      "Ġbreed": 3892,
      "ĠWherefore": 3893,
      "ĠPrin": 3894,
      "Ġslow": 3895,
      "Ġrepent": 3896,
      "Ġundert": 3897,
      "Ġgriefs": 3898,
      "Ġweeping": 3899,
      "Ġmurde": 3900,
      "Ġcolours": 3901,
      "ĠSilvia": 3902,
      "ĠEmilia": 3903,
      "OLYCUS": 3904,
      "Ġfiend": 3905,
      "Ġleisure": 3906,
      "ĠJAILER": 3907,
      "ĠAUTOLYCUS": 3908,
      "ĠMONT": 3909,
      "apt": 3910,
      "dem": 3911,
      "Ġant": 3912,
      "Ġyea": 3913,
      "ĠPut": 3914,
      "ĠDian": 3915,
      "ENES": 3916,
      "Ġseat": 3917,
      "UST": 3918,
      "Ġwhether": 3919,
      "Ġthinks": 3920,
      "Ġchall": 3921,
      "Ġclouds": 3922,
      "ĠMARCUS": 3923,
      "ISBURY": 3924,
      "Ġaffairs": 3925,
      "Ġminister": 3926,
      "Ġcorrupt": 3927,
      "Ġsubjects": 3928,
      "Ġapproach": 3929,
      "Ġsighs": 3930,
      "Ġdreadful": 3931,
      "ĠSALISBURY": 3932,
      "ĠPOINS": 3933,
      "ĠTomorrow": 3934,
      "Ġmonstrous": 3935,
      "Ġfruit": 3936,
      "ĠCOMINIUS": 3937,
      "ĠBenedick": 3938,
      "VOST": 3939,
      "eous": 3940,
      "iving": 3941,
      "Ġwag": 3942,
      "Ġfain": 3943,
      "Ġfancy": 3944,
      "Ġdign": 3945,
      "Ġcries": 3946,
      "Ġled": 3947,
      "enet": 3948,
      "ĠTime": 3949,
      "Ġpin": 3950,
      "ĠSic": 3951,
      "ĠHOL": 3952,
      "ĠCress": 3953,
      "ĠMil": 3954,
      "Ġweight": 3955,
      "ĠOS": 3956,
      "Ġstone": 3957,
      "Ġstol": 3958,
      "ĠEp": 3959,
      "ĠEgy": 3960,
      "Ġdoing": 3961,
      "cked": 3962,
      "Ġloath": 3963,
      "Ġknife": 3964,
      "inds": 3965,
      "Ġunha": 3966,
      "ĠVOL": 3967,
      "Ġdesperate": 3968,
      "Ġlooked": 3969,
      "ĠStill": 3970,
      "ounter": 3971,
      "Ġtreasure": 3972,
      "ĠPROVOST": 3973,
      "Ġeasy": 3974,
      "ĠSTEPH": 3975,
      "Ġexecution": 3976,
      "Ġpict": 3977,
      "ĠBritain": 3978,
      "ĠDAUGH": 3979,
      "Ġabroad": 3980,
      "ĠEgypt": 3981,
      "ĠDAUGHTER": 3982,
      "CUT": 3983,
      "son": 3984,
      "tle": 3985,
      "uch": 3986,
      "Ã¦": 3987,
      "heart": 3988,
      "llo": 3989,
      "Ġlen": 3990,
      "Ġlangu": 3991,
      "enant": 3992,
      "enance": 3993,
      "Ġhorses": 3994,
      "ances": 3995,
      "Ġbell": 3996,
      "ĠSave": 3997,
      "ĠPost": 3998,
      "ĠGA": 3999,
      "Ġseven": 4000,
      "Ġseason": 4001,
      "ERIUS": 4002,
      "iling": 4003,
      "que": 4004,
      "Ġgoodness": 4005,
      "Ġoutward": 4006,
      "Ġchain": 4007,
      "ITH": 4008,
      "Ġbegins": 4009,
      "IDIUS": 4010,
      "Ġkilled": 4011,
      "Ġreasons": 4012,
      "ĠLucentio": 4013,
      "ĠOnly": 4014,
      "BERT": 4015,
      "Ġdispatch": 4016,
      "Ġsilence": 4017,
      "Ġawake": 4018,
      "Twas": 4019,
      "ĠDesdem": 4020,
      "Ġneighbour": 4021,
      "Ġcircum": 4022,
      "ĠCressid": 4023,
      "ĠSTEPHANO": 4024,
      "AY": 4025,
      "MIAN": 4026,
      "ras": 4027,
      "Ġ2": 4028,
      "ination": 4029,
      "Ġbig": 4030,
      "Ġnumber": 4031,
      "arus": 4032,
      "Ġpot": 4033,
      "Ġpaid": 4034,
      "ĠWILL": 4035,
      "ĠBEN": 4036,
      "ĠMal": 4037,
      "Ġease": 4038,
      "ĠPort": 4039,
      "ĠLa": 4040,
      "Ġstom": 4041,
      "ĠNature": 4042,
      "Ġvenge": 4043,
      "Ġcomb": 4044,
      "wards": 4045,
      "ĠMARINA": 4046,
      "Ġguest": 4047,
      "Ġtrial": 4048,
      "Ġbids": 4049,
      "Ġmiser": 4050,
      "UMIO": 4051,
      "ĠGRUMIO": 4052,
      "ĠProv": 4053,
      "Ġbride": 4054,
      "ĠPHIL": 4055,
      "ĠCHARMIAN": 4056,
      "ĠOfficers": 4057,
      "Ġjewel": 4058,
      "Ġstorm": 4059,
      "ĠMontague": 4060,
      "ĠPlease": 4061,
      "ĠBENVOLIO": 4062,
      "MOR": 4063,
      "MED": 4064,
      "St": 4065,
      "balt": 4066,
      "dy": 4067,
      "ience": 4068,
      "thi": 4069,
      "Ġsqu": 4070,
      "Ġsau": 4071,
      "Ġmild": 4072,
      "Ġwide": 4073,
      "Ġwings": 4074,
      "Ġwhilst": 4075,
      "ĠToo": 4076,
      "Ġthick": 4077,
      "Ġtomb": 4078,
      "ĠWhilst": 4079,
      "ĠSet": 4080,
      "ĠCAL": 4081,
      "ĠMort": 4082,
      "Ġstones": 4083,
      "ĠEither": 4084,
      "ĠDIO": 4085,
      "ERTES": 4086,
      "ARINE": 4087,
      "elve": 4088,
      "eless": 4089,
      "ĠJust": 4090,
      "ETTA": 4091,
      "Ġhopes": 4092,
      "eeth": 4093,
      "Ġrid": 4094,
      "Ġwhereof": 4095
    },
    "merges": [
      [
        "Ġ",
        "t"
      ],
      [
        "h",
        "e"
      ],
      [
        "Ġ",
        "a"
      ],
      [
        "o",
        "u"
      ],
      [
        "Ġ",
        "s"
      ],
      [
        "i",
        "n"
      ],
      [
        "Ġ",
        "m"
      ],
      [
        "Ġ",
        "w"
      ],
      [
        "r",
        "e"
      ],
      [
        "h",
        "a"
      ],
      [
        "n",
        "d"
      ],
      [
        "Ġ",
        "Ċ"
      ],
      [
        "Ġt",
        "he"
      ],
      [
        "Ġ",
        "b"
      ],
      [
        "i",
        "s"
      ],
      [
        "e",
        "r"
      ],
      [
        "o",
        "r"
      ],
      [
        "â",
        "Ģ"
      ],
      [
        "Ġ",
        "I"
      ],
      [
        "l",
        "l"
      ],
      [
        "Ġ",
        "f"
      ],
      [
        "o",
        "n"
      ],
      [
        "i",
        "t"
      ],
      [
        "âĢ",
        "Ļ"
      ],
      [
        "e",
        "s"
      ],
      [
        "Ġ",
        "d"
      ],
      [
        "Ġ",
        "c"
      ],
      [
        "Ġ",
        "l"
      ],
      [
        "Ġ",
        "o"
      ],
      [
        "e",
        "n"
      ],
      [
        "Ġ",
        "T"
      ],
      [
        "Ġ",
        "n"
      ],
      [
        "Ġ",
        "y"
      ],
      [
        "Ġt",
        "h"
      ],
      [
        "a",
        "r"
      ],
      [
        "Ġ",
        "h"
      ],
      [
        "Ġ",
        "A"
      ],
      [
        "Ġ",
        "p"
      ],
      [
        "Ġy",
        "ou"
      ],
      [
        "Ġt",
        "o"
      ],
      [
        "Ġa",
        "nd"
      ],
      [
        "ha",
        "t"
      ],
      [
        "Ġo",
        "f"
      ],
      [
        "Ġ",
        "he"
      ],
      [
        "o",
        "t"
      ],
      [
        "a",
        "n"
      ],
      [
        "v",
        "e"
      ],
      [
        "s",
        "t"
      ],
      [
        "in",
        "g"
      ],
      [
        "o",
        "w"
      ],
      [
        "o",
        "m"
      ],
      [
        "Ġ",
        "g"
      ],
      [
        "a",
        "t"
      ],
      [
        "e",
        "d"
      ],
      [
        "Ġ",
        "W"
      ],
      [
        "Ġ",
        "in"
      ],
      [
        "Ġb",
        "e"
      ],
      [
        "Ġ",
        "S"
      ],
      [
        "s",
        "e"
      ],
      [
        "c",
        "e"
      ],
      [
        "Ġ",
        "ha"
      ],
      [
        "e",
        "t"
      ],
      [
        "Ġm",
        "y"
      ],
      [
        "l",
        "d"
      ],
      [
        "a",
        "y"
      ],
      [
        "l",
        "e"
      ],
      [
        "Ġ",
        "H"
      ],
      [
        "Ġ",
        "Ġ"
      ],
      [
        "Ġ",
        "B"
      ],
      [
        "u",
        "t"
      ],
      [
        "i",
        "r"
      ],
      [
        "it",
        "h"
      ],
      [
        "i",
        "m"
      ],
      [
        "Ġm",
        "e"
      ],
      [
        "Ġ",
        "C"
      ],
      [
        "c",
        "h"
      ],
      [
        "g",
        "h"
      ],
      [
        "Ġn",
        "ot"
      ],
      [
        "Ġ",
        "M"
      ],
      [
        "Ġ",
        "is"
      ],
      [
        "i",
        "ll"
      ],
      [
        "Ġ",
        "e"
      ],
      [
        "Ġt",
        "hat"
      ],
      [
        "k",
        "e"
      ],
      [
        "Ġf",
        "or"
      ],
      [
        "ĠA",
        "nd"
      ],
      [
        "o",
        "o"
      ],
      [
        "ou",
        "r"
      ],
      [
        "Ġw",
        "ith"
      ],
      [
        "Ġ",
        "u"
      ],
      [
        "Ġ",
        "P"
      ],
      [
        "Ġ",
        "F"
      ],
      [
        "Ġw",
        "e"
      ],
      [
        "a",
        "d"
      ],
      [
        "Ġ",
        "O"
      ],
      [
        "t",
        "er"
      ],
      [
        "ĠT",
        "he"
      ],
      [
        "Ġ",
        "it"
      ],
      [
        "a",
        "s"
      ],
      [
        "Ġ",
        "L"
      ],
      [
        "r",
        "i"
      ],
      [
        "a",
        "l"
      ],
      [
        "en",
        "t"
      ],
      [
        "Ġh",
        "is"
      ],
      [
        "Ġyou",
        "r"
      ],
      [
        "he",
        "r"
      ],
      [
        "Ġs",
        "t"
      ],
      [
        "i",
        "d"
      ],
      [
        "r",
        "a"
      ],
      [
        "Ġth",
        "ou"
      ],
      [
        "Ġ",
        "E"
      ],
      [
        "gh",
        "t"
      ],
      [
        "Ġh",
        "im"
      ],
      [
        "Ġ",
        "re"
      ],
      [
        "l",
        "y"
      ],
      [
        "Ġth",
        "is"
      ],
      [
        "Ġl",
        "i"
      ],
      [
        "Ġha",
        "ve"
      ],
      [
        "u",
        "s"
      ],
      [
        "om",
        "e"
      ],
      [
        "or",
        "d"
      ],
      [
        "Ġ",
        "on"
      ],
      [
        "Ġ",
        "D"
      ],
      [
        "Ġ",
        "G"
      ],
      [
        "Ġ",
        "k"
      ],
      [
        "Ġs",
        "o"
      ],
      [
        "u",
        "r"
      ],
      [
        "Ġa",
        "s"
      ],
      [
        "v",
        "er"
      ],
      [
        "o",
        "re"
      ],
      [
        "ou",
        "ld"
      ],
      [
        "a",
        "in"
      ],
      [
        "r",
        "o"
      ],
      [
        "Ġd",
        "e"
      ],
      [
        "Ġ",
        "N"
      ],
      [
        "Ġd",
        "o"
      ],
      [
        "h",
        "i"
      ],
      [
        "Ġw",
        "ill"
      ],
      [
        "c",
        "k"
      ],
      [
        "a",
        "m"
      ],
      [
        "oo",
        "d"
      ],
      [
        "E",
        "N"
      ],
      [
        "Ġs",
        "ha"
      ],
      [
        "es",
        "s"
      ],
      [
        "Ġs",
        "e"
      ],
      [
        "Ġhe",
        "r"
      ],
      [
        "i",
        "on"
      ],
      [
        "es",
        "t"
      ],
      [
        "U",
        "S"
      ],
      [
        "Ġ",
        "["
      ],
      [
        "Ġl",
        "o"
      ],
      [
        "n",
        "t"
      ],
      [
        "g",
        "e"
      ],
      [
        "E",
        "R"
      ],
      [
        "e",
        "a"
      ],
      [
        "Ġ[",
        "_"
      ],
      [
        "Ġth",
        "y"
      ],
      [
        "Ġ",
        "R"
      ],
      [
        "Ġn",
        "o"
      ],
      [
        "Ġ",
        "Y"
      ],
      [
        "Ġs",
        "u"
      ],
      [
        "I",
        "N"
      ],
      [
        "Ġa",
        "n"
      ],
      [
        "a",
        "nd"
      ],
      [
        "ĠT",
        "h"
      ],
      [
        "Ġa",
        "ll"
      ],
      [
        "i",
        "l"
      ],
      [
        "Ġb",
        "ut"
      ],
      [
        "t",
        "h"
      ],
      [
        "A",
        "R"
      ],
      [
        "r",
        "u"
      ],
      [
        "a",
        "ke"
      ],
      [
        ".",
        "_"
      ],
      [
        "Ġ",
        "K"
      ],
      [
        "Ġf",
        "a"
      ],
      [
        "i",
        "f"
      ],
      [
        "Ġs",
        "p"
      ],
      [
        "A",
        "N"
      ],
      [
        "e",
        "ll"
      ],
      [
        "ĠT",
        "o"
      ],
      [
        "c",
        "t"
      ],
      [
        "e",
        "ar"
      ],
      [
        "Ġk",
        "n"
      ],
      [
        "ĠĠ",
        "ĠĠ"
      ],
      [
        "i",
        "ght"
      ],
      [
        "._",
        "]"
      ],
      [
        "Ġsha",
        "ll"
      ],
      [
        "Ġthe",
        "e"
      ],
      [
        "Ġ",
        "v"
      ],
      [
        "h",
        "o"
      ],
      [
        "Ġa",
        "re"
      ],
      [
        "a",
        "st"
      ],
      [
        "r",
        "om"
      ],
      [
        "E",
        "S"
      ],
      [
        "ĠT",
        "hat"
      ],
      [
        "ha",
        "n"
      ],
      [
        "ar",
        "d"
      ],
      [
        "ar",
        "t"
      ],
      [
        "Ġb",
        "y"
      ],
      [
        "Ġs",
        "h"
      ],
      [
        "O",
        "N"
      ],
      [
        "Ġ",
        "our"
      ],
      [
        "Ġn",
        "e"
      ],
      [
        "an",
        "t"
      ],
      [
        "Ġm",
        "an"
      ],
      [
        "in",
        "e"
      ],
      [
        "e",
        "nd"
      ],
      [
        "Ġ",
        "âĢĻ"
      ],
      [
        "ĠE",
        "n"
      ],
      [
        "ĠB",
        "ut"
      ],
      [
        "ĠH",
        "e"
      ],
      [
        "Ġa",
        "t"
      ],
      [
        "ou",
        "s"
      ],
      [
        "q",
        "u"
      ],
      [
        "Ġu",
        "p"
      ],
      [
        "Ġa",
        "m"
      ],
      [
        "Ġc",
        "om"
      ],
      [
        "re",
        "s"
      ],
      [
        "Ġm",
        "u"
      ],
      [
        "ĠW",
        "hat"
      ],
      [
        "se",
        "l"
      ],
      [
        "ou",
        "t"
      ],
      [
        "S",
        "T"
      ],
      [
        "on",
        "e"
      ],
      [
        "i",
        "e"
      ],
      [
        "Ġs",
        "he"
      ],
      [
        "in",
        "d"
      ],
      [
        "Ġl",
        "ord"
      ],
      [
        "e",
        "m"
      ],
      [
        "Ġg",
        "ood"
      ],
      [
        "Ġw",
        "he"
      ],
      [
        "Ġg",
        "o"
      ],
      [
        "Ġc",
        "on"
      ],
      [
        "i",
        "ve"
      ],
      [
        "hi",
        "ch"
      ],
      [
        "er",
        "s"
      ],
      [
        "on",
        "g"
      ],
      [
        "u",
        "l"
      ],
      [
        "Ġf",
        "rom"
      ],
      [
        "âĢ",
        "Ķ"
      ],
      [
        "i",
        "c"
      ],
      [
        "Ġlo",
        "ve"
      ],
      [
        "r",
        "y"
      ],
      [
        "O",
        "R"
      ],
      [
        "Ġw",
        "hat"
      ],
      [
        "ot",
        "h"
      ],
      [
        "v",
        "en"
      ],
      [
        "r",
        "ow"
      ],
      [
        "Ġb",
        "l"
      ],
      [
        "b",
        "le"
      ],
      [
        "Ġthe",
        "m"
      ],
      [
        "Ġw",
        "as"
      ],
      [
        "Ġs",
        "w"
      ],
      [
        "Ġkn",
        "ow"
      ],
      [
        "Ġw",
        "ould"
      ],
      [
        "ĠEn",
        "ter"
      ],
      [
        "Ġm",
        "ore"
      ],
      [
        "ĠF",
        "or"
      ],
      [
        "Ġthe",
        "ir"
      ],
      [
        "p",
        "p"
      ],
      [
        "a",
        "u"
      ],
      [
        "I",
        "O"
      ],
      [
        "Ġc",
        "an"
      ],
      [
        "Ġp",
        "r"
      ],
      [
        "o",
        "l"
      ],
      [
        "at",
        "h"
      ],
      [
        "f",
        "e"
      ],
      [
        "e",
        "p"
      ],
      [
        "Ġn",
        "ow"
      ],
      [
        "Ġthe",
        "y"
      ],
      [
        "u",
        "re"
      ],
      [
        "Ġthe",
        "re"
      ],
      [
        "o",
        "st"
      ],
      [
        "Ġ",
        "hat"
      ],
      [
        "a",
        "ll"
      ],
      [
        "Ġw",
        "or"
      ],
      [
        "E",
        "x"
      ],
      [
        "Ġ",
        "or"
      ],
      [
        "Ġt",
        "han"
      ],
      [
        "Ġa",
        "r"
      ],
      [
        "sel",
        "f"
      ],
      [
        "e",
        "l"
      ],
      [
        "A",
        "L"
      ],
      [
        "at",
        "e"
      ],
      [
        "Ġs",
        "ir"
      ],
      [
        "Ġu",
        "s"
      ],
      [
        "Ġ",
        "if"
      ],
      [
        "in",
        "k"
      ],
      [
        "Ġs",
        "ay"
      ],
      [
        "am",
        "e"
      ],
      [
        "ĠW",
        "he"
      ],
      [
        "Ġl",
        "et"
      ],
      [
        "Ġhe",
        "re"
      ],
      [
        "u",
        "m"
      ],
      [
        "ot",
        "her"
      ],
      [
        "Ġ",
        "J"
      ],
      [
        "u",
        "e"
      ],
      [
        "Ġp",
        "l"
      ],
      [
        "ĠY",
        "ou"
      ],
      [
        "re",
        "at"
      ],
      [
        "ĠM",
        "y"
      ],
      [
        "a",
        "re"
      ],
      [
        "f",
        "ore"
      ],
      [
        "v",
        "es"
      ],
      [
        "a",
        "k"
      ],
      [
        "or",
        "t"
      ],
      [
        "O",
        "L"
      ],
      [
        "ĠI",
        "f"
      ],
      [
        "E",
        "T"
      ],
      [
        "h",
        "y"
      ],
      [
        "Ġli",
        "ke"
      ],
      [
        "oo",
        "k"
      ],
      [
        "is",
        "h"
      ],
      [
        "Ġthe",
        "n"
      ],
      [
        "Ġwe",
        "ll"
      ],
      [
        "ou",
        "nd"
      ],
      [
        "Ġon",
        "e"
      ],
      [
        "Ġhat",
        "h"
      ],
      [
        "IN",
        "G"
      ],
      [
        "Ġse",
        "e"
      ],
      [
        "at",
        "her"
      ],
      [
        "i",
        "g"
      ],
      [
        "Ġ",
        "j"
      ],
      [
        "o",
        "d"
      ],
      [
        "Ġu",
        "n"
      ],
      [
        "Ġsh",
        "ould"
      ],
      [
        "u",
        "n"
      ],
      [
        "Ġd",
        "id"
      ],
      [
        "Ġ",
        "r"
      ],
      [
        "E",
        "L"
      ],
      [
        "ĠA",
        "s"
      ],
      [
        "I",
        "C"
      ],
      [
        "Ġm",
        "ay"
      ],
      [
        "Ġc",
        "ome"
      ],
      [
        "Ġ",
        "en"
      ],
      [
        "Ġ",
        "V"
      ],
      [
        "Ġb",
        "r"
      ],
      [
        "Ġd",
        "is"
      ],
      [
        "Ġm",
        "ake"
      ],
      [
        "Ġ",
        "âĢ"
      ],
      [
        "an",
        "ce"
      ],
      [
        "g",
        "ain"
      ],
      [
        "Ġm",
        "ad"
      ],
      [
        "Ġ",
        "qu"
      ],
      [
        "Ġh",
        "o"
      ],
      [
        "Ġ",
        "out"
      ],
      [
        "Ġup",
        "on"
      ],
      [
        "Ġw",
        "hich"
      ],
      [
        "i",
        "ce"
      ],
      [
        "Ġs",
        "a"
      ],
      [
        "Ġmu",
        "st"
      ],
      [
        "Ġwe",
        "re"
      ],
      [
        "ver",
        "y"
      ],
      [
        "ea",
        "k"
      ],
      [
        "re",
        "d"
      ],
      [
        "it",
        "y"
      ],
      [
        "p",
        "e"
      ],
      [
        "I",
        "R"
      ],
      [
        "Ġha",
        "d"
      ],
      [
        "im",
        "e"
      ],
      [
        "Ġto",
        "o"
      ],
      [
        "I",
        "US"
      ],
      [
        "ĠĠ",
        "Ġ"
      ],
      [
        "Ġp",
        "ro"
      ],
      [
        "i",
        "es"
      ],
      [
        "Ġt",
        "ru"
      ],
      [
        "p",
        "t"
      ],
      [
        "en",
        "ce"
      ],
      [
        "Ġhe",
        "art"
      ],
      [
        "Ġe",
        "y"
      ],
      [
        "Ġp",
        "o"
      ],
      [
        "Ġwhe",
        "n"
      ],
      [
        "Ġsu",
        "ch"
      ],
      [
        "Ġh",
        "on"
      ],
      [
        "ĠK",
        "ING"
      ],
      [
        "ĠB",
        "e"
      ],
      [
        "Ġha",
        "nd"
      ],
      [
        "or",
        "n"
      ],
      [
        "u",
        "nt"
      ],
      [
        "ĠI",
        "n"
      ],
      [
        "Ġe",
        "x"
      ],
      [
        "f",
        "f"
      ],
      [
        "L",
        "O"
      ],
      [
        "o",
        "nd"
      ],
      [
        "t",
        "her"
      ],
      [
        "is",
        "t"
      ],
      [
        "ĠTh",
        "ou"
      ],
      [
        "Ġa",
        "l"
      ],
      [
        "ĠS",
        "o"
      ],
      [
        "Ġa",
        "gain"
      ],
      [
        "i",
        "ck"
      ],
      [
        "ĠK",
        "ing"
      ],
      [
        "ĠTh",
        "is"
      ],
      [
        "ĠH",
        "ow"
      ],
      [
        "Ġy",
        "et"
      ],
      [
        "id",
        "e"
      ],
      [
        "n",
        "ess"
      ],
      [
        "as",
        "s"
      ],
      [
        "U",
        "C"
      ],
      [
        "ĠW",
        "ith"
      ],
      [
        "a",
        "ve"
      ],
      [
        "Ġw",
        "ho"
      ],
      [
        "ĠW",
        "hy"
      ],
      [
        "w",
        "n"
      ],
      [
        "ĠW",
        "e"
      ],
      [
        "Ġof",
        "f"
      ],
      [
        "is",
        "e"
      ],
      [
        "Ġsp",
        "eak"
      ],
      [
        "I",
        "A"
      ],
      [
        "A",
        "T"
      ],
      [
        "i",
        "re"
      ],
      [
        "a",
        "ge"
      ],
      [
        "Ġs",
        "ome"
      ],
      [
        "ĠâĢ",
        "ľ"
      ],
      [
        "Ġ",
        "ro"
      ],
      [
        "ur",
        "n"
      ],
      [
        "ĠN",
        "o"
      ],
      [
        "e",
        "et"
      ],
      [
        "ing",
        "s"
      ],
      [
        "Ġf",
        "ri"
      ],
      [
        "Ġth",
        "ink"
      ],
      [
        "i",
        "o"
      ],
      [
        "Ġthe",
        "se"
      ],
      [
        "a",
        "ck"
      ],
      [
        "o",
        "se"
      ],
      [
        "Ġm",
        "ine"
      ],
      [
        "Ġf",
        "l"
      ],
      [
        "ad",
        "y"
      ],
      [
        "Ġa",
        "b"
      ],
      [
        "o",
        "y"
      ],
      [
        "AR",
        "D"
      ],
      [
        "Ġf",
        "o"
      ],
      [
        "n",
        "g"
      ],
      [
        "ow",
        "n"
      ],
      [
        "Ġf",
        "ather"
      ],
      [
        "Ġg",
        "reat"
      ],
      [
        "A",
        "M"
      ],
      [
        "Ġ",
        "U"
      ],
      [
        "Ġhe",
        "a"
      ],
      [
        "Ġc",
        "ha"
      ],
      [
        "Ġh",
        "ow"
      ],
      [
        "ĠI",
        "t"
      ],
      [
        "Ġt",
        "ime"
      ],
      [
        "e",
        "unt"
      ],
      [
        "Ġt",
        "w"
      ],
      [
        "Ġg",
        "ive"
      ],
      [
        "f",
        "ul"
      ],
      [
        "res",
        "s"
      ],
      [
        "in",
        "ce"
      ],
      [
        "ĠW",
        "ho"
      ],
      [
        "I",
        "L"
      ],
      [
        "ĠO",
        "f"
      ],
      [
        "a",
        "g"
      ],
      [
        "d",
        "e"
      ],
      [
        "Ġ",
        "Q"
      ],
      [
        "ĠI",
        "s"
      ],
      [
        "ent",
        "le"
      ],
      [
        "ES",
        "S"
      ],
      [
        "Ġt",
        "ake"
      ],
      [
        "Ġg",
        "ra"
      ],
      [
        "Ġfri",
        "end"
      ],
      [
        "u",
        "st"
      ],
      [
        "c",
        "i"
      ],
      [
        "Ġ",
        "ri"
      ],
      [
        "ĠThe",
        "re"
      ],
      [
        "Ġmu",
        "ch"
      ],
      [
        "Ġwhe",
        "re"
      ],
      [
        "o",
        "s"
      ],
      [
        "R",
        "O"
      ],
      [
        "w",
        "ay"
      ],
      [
        "Ex",
        "eunt"
      ],
      [
        "Ġm",
        "ar"
      ],
      [
        "b",
        "er"
      ],
      [
        "Ġd",
        "ay"
      ],
      [
        "at",
        "ion"
      ],
      [
        "Ġm",
        "ost"
      ],
      [
        "âĢ",
        "Ŀ"
      ],
      [
        "ĠĠĠĠ",
        "ĠĠĠĠ"
      ],
      [
        "Ġt",
        "ell"
      ],
      [
        "Ġp",
        "art"
      ],
      [
        "Ġbe",
        "t"
      ],
      [
        "EN",
        "E"
      ],
      [
        "ast",
        "er"
      ],
      [
        "ĠL",
        "et"
      ],
      [
        "Ġd",
        "es"
      ],
      [
        "Ġb",
        "re"
      ],
      [
        "Ġne",
        "ver"
      ],
      [
        "Ex",
        "it"
      ],
      [
        "a",
        "ce"
      ],
      [
        "Ġl",
        "e"
      ],
      [
        "Ġl",
        "ea"
      ],
      [
        "Ġhe",
        "ar"
      ],
      [
        "ĠW",
        "hich"
      ],
      [
        "re",
        "e"
      ],
      [
        "Ġl",
        "ook"
      ],
      [
        "Ġm",
        "en"
      ],
      [
        "u",
        "ll"
      ],
      [
        "ĠC",
        "ome"
      ],
      [
        "ĠA",
        "N"
      ],
      [
        "Ġo",
        "ther"
      ],
      [
        "Ġar",
        "t"
      ],
      [
        "l",
        "i"
      ],
      [
        "ou",
        "gh"
      ],
      [
        "it",
        "her"
      ],
      [
        "a",
        "p"
      ],
      [
        "Ġbl",
        "ood"
      ],
      [
        "it",
        "e"
      ],
      [
        "Ġe",
        "ar"
      ],
      [
        "ig",
        "n"
      ],
      [
        "Ġli",
        "fe"
      ],
      [
        "Ġde",
        "ath"
      ],
      [
        "Ġw",
        "ord"
      ],
      [
        "Ġd",
        "oth"
      ],
      [
        "ou",
        "nt"
      ],
      [
        "Ġhon",
        "our"
      ],
      [
        "en",
        "e"
      ],
      [
        "Ġfa",
        "ir"
      ],
      [
        "m",
        "ent"
      ],
      [
        "ou",
        "l"
      ],
      [
        "ĠWhe",
        "n"
      ],
      [
        "ĠWhe",
        "re"
      ],
      [
        "c",
        "es"
      ],
      [
        "Ġw",
        "r"
      ],
      [
        "ĠB",
        "y"
      ],
      [
        "i",
        "gh"
      ],
      [
        "ĠS",
        "c"
      ],
      [
        "c",
        "he"
      ],
      [
        "ĠO",
        "r"
      ],
      [
        "er",
        "v"
      ],
      [
        "ĠS",
        "C"
      ],
      [
        "ĠS",
        "ir"
      ],
      [
        "Ġg",
        "entle"
      ],
      [
        "L",
        "E"
      ],
      [
        "Ġf",
        "ear"
      ],
      [
        "Ġs",
        "on"
      ],
      [
        "Ġin",
        "t"
      ],
      [
        "a",
        "se"
      ],
      [
        "Ġt",
        "r"
      ],
      [
        "i",
        "us"
      ],
      [
        "w",
        "ard"
      ],
      [
        "Ġs",
        "c"
      ],
      [
        "an",
        "s"
      ],
      [
        "ĠL",
        "ord"
      ],
      [
        "Ġp",
        "le"
      ],
      [
        "Ġan",
        "y"
      ],
      [
        "oo",
        "l"
      ],
      [
        "Ġc",
        "l"
      ],
      [
        "Ġsw",
        "eet"
      ],
      [
        "Ġo",
        "wn"
      ],
      [
        "Ġp",
        "er"
      ],
      [
        "ĠN",
        "ow"
      ],
      [
        "Ġa",
        "d"
      ],
      [
        "Ġcom",
        "m"
      ],
      [
        "it",
        "t"
      ],
      [
        "F",
        "F"
      ],
      [
        "ĠSC",
        "ENE"
      ],
      [
        "n",
        "ot"
      ],
      [
        "o",
        "ve"
      ],
      [
        "Ġw",
        "ar"
      ],
      [
        "nd",
        "er"
      ],
      [
        "Ġn",
        "ight"
      ],
      [
        "Ġ",
        "ra"
      ],
      [
        "Ġhea",
        "ven"
      ],
      [
        "ĠA",
        "n"
      ],
      [
        "ĠP",
        "r"
      ],
      [
        "ou",
        "se"
      ],
      [
        "ĠG",
        "od"
      ],
      [
        "Ġmad",
        "e"
      ],
      [
        "Ġc",
        "all"
      ],
      [
        "h",
        "ing"
      ],
      [
        "t",
        "is"
      ],
      [
        "f",
        "t"
      ],
      [
        "l",
        "and"
      ],
      [
        "n",
        "ce"
      ],
      [
        "Ġw",
        "h"
      ],
      [
        "Ġtru",
        "e"
      ],
      [
        "Ġey",
        "es"
      ],
      [
        "e",
        "e"
      ],
      [
        "l",
        "es"
      ],
      [
        "ĠI",
        "I"
      ],
      [
        "I",
        "T"
      ],
      [
        "p",
        "er"
      ],
      [
        "Ġc",
        "o"
      ],
      [
        "Ġ",
        "very"
      ],
      [
        "row",
        "n"
      ],
      [
        "ll",
        "ow"
      ],
      [
        "au",
        "gh"
      ],
      [
        "i",
        "a"
      ],
      [
        "Ġ",
        "ke"
      ],
      [
        "Ġa",
        "pp"
      ],
      [
        "ĠF",
        "IR"
      ],
      [
        "ĠFIR",
        "ST"
      ],
      [
        "Ġcan",
        "not"
      ],
      [
        "u",
        "ke"
      ],
      [
        "ĠM",
        "ar"
      ],
      [
        "Ġha",
        "st"
      ],
      [
        "Ġa",
        "f"
      ],
      [
        "Ġp",
        "re"
      ],
      [
        "Ġwor",
        "ld"
      ],
      [
        "ct",
        "ion"
      ],
      [
        "or",
        "row"
      ],
      [
        "ĠS",
        "t"
      ],
      [
        "ĠThe",
        "n"
      ],
      [
        "Ġst",
        "r"
      ],
      [
        "m",
        "an"
      ],
      [
        "Ġpr",
        "ay"
      ],
      [
        "ĠSc",
        "ene"
      ],
      [
        "Ġbe",
        "en"
      ],
      [
        "ĠHe",
        "re"
      ],
      [
        "U",
        "R"
      ],
      [
        "Ġc",
        "our"
      ],
      [
        "ĠC",
        "A"
      ],
      [
        "Ġa",
        "way"
      ],
      [
        "a",
        "ble"
      ],
      [
        "Ġbe",
        "ar"
      ],
      [
        "s",
        "s"
      ],
      [
        "Ġ",
        "im"
      ],
      [
        "ĠD",
        "o"
      ],
      [
        "Ġk",
        "ing"
      ],
      [
        "Ġcom",
        "p"
      ],
      [
        "T",
        "is"
      ],
      [
        "Ġw",
        "ay"
      ],
      [
        "Ġ",
        "ru"
      ],
      [
        "Ġd",
        "one"
      ],
      [
        "ĠY",
        "our"
      ],
      [
        "Ġw",
        "it"
      ],
      [
        "Ġn",
        "or"
      ],
      [
        "Ġl",
        "a"
      ],
      [
        "v",
        "ing"
      ],
      [
        "Ġtw",
        "o"
      ],
      [
        "c",
        "c"
      ],
      [
        ".",
        "]"
      ],
      [
        "o",
        "ck"
      ],
      [
        "ain",
        "t"
      ],
      [
        "u",
        "d"
      ],
      [
        "Ġhe",
        "ad"
      ],
      [
        "Ġw",
        "om"
      ],
      [
        "Ġd",
        "own"
      ],
      [
        "Ġst",
        "and"
      ],
      [
        "Ġn",
        "ame"
      ],
      [
        "ĠA",
        "y"
      ],
      [
        "Ġar",
        "m"
      ],
      [
        "Ġe",
        "ver"
      ],
      [
        "e",
        "en"
      ],
      [
        "p",
        "s"
      ],
      [
        "Ġm",
        "ight"
      ],
      [
        "Ġbe",
        "fore"
      ],
      [
        "T",
        "H"
      ],
      [
        "ow",
        "er"
      ],
      [
        "is",
        "s"
      ],
      [
        "Ġcon",
        "t"
      ],
      [
        "Ġbr",
        "other"
      ],
      [
        "P",
        "H"
      ],
      [
        "ĠS",
        "he"
      ],
      [
        "Ġp",
        "res"
      ],
      [
        "EN",
        "T"
      ],
      [
        "AN",
        "D"
      ],
      [
        "g",
        "er"
      ],
      [
        "l",
        "ess"
      ],
      [
        "Ġo",
        "ld"
      ],
      [
        "Ġthou",
        "ght"
      ],
      [
        "s",
        "w"
      ],
      [
        "i",
        "an"
      ],
      [
        "k",
        "s"
      ],
      [
        "Ġ",
        "_"
      ],
      [
        "if",
        "e"
      ],
      [
        "A",
        "C"
      ],
      [
        "Ġs",
        "l"
      ],
      [
        "ear",
        "s"
      ],
      [
        "t",
        "y"
      ],
      [
        "Ġbe",
        "g"
      ],
      [
        "ĠD",
        "uke"
      ],
      [
        "Ġlea",
        "ve"
      ],
      [
        "Ġno",
        "ble"
      ],
      [
        "augh",
        "ter"
      ],
      [
        "Ġl",
        "ong"
      ],
      [
        "ĠS",
        "ha"
      ],
      [
        "ĠAN",
        "T"
      ],
      [
        "a",
        "ch"
      ],
      [
        "OR",
        "D"
      ],
      [
        "Ġl",
        "ady"
      ],
      [
        "Ġth",
        "us"
      ],
      [
        "ĠR",
        "O"
      ],
      [
        "Ġre",
        "m"
      ],
      [
        "Ġc",
        "ould"
      ],
      [
        "ir",
        "st"
      ],
      [
        "ĠH",
        "is"
      ],
      [
        "ĠC",
        "a"
      ],
      [
        "Ġf",
        "ool"
      ],
      [
        "A",
        "G"
      ],
      [
        "Ġne",
        "w"
      ],
      [
        "L",
        "A"
      ],
      [
        "ĠS",
        "E"
      ],
      [
        "Ġha",
        "r"
      ],
      [
        "as",
        "on"
      ],
      [
        "Ġde",
        "ad"
      ],
      [
        "I",
        "AN"
      ],
      [
        "_",
        ".]"
      ],
      [
        "ri",
        "e"
      ],
      [
        "Ġcom",
        "es"
      ],
      [
        "b",
        "l"
      ],
      [
        "ĠT",
        "H"
      ],
      [
        "Ġh",
        "ouse"
      ],
      [
        "Ġp",
        "ur"
      ],
      [
        "Ġpo",
        "or"
      ],
      [
        "au",
        "se"
      ],
      [
        "ĠA",
        "t"
      ],
      [
        "Ġsh",
        "ow"
      ],
      [
        "Ġli",
        "ve"
      ],
      [
        "ĠQ",
        "U"
      ],
      [
        "Ġbe",
        "ing"
      ],
      [
        "Ġe",
        "nd"
      ],
      [
        "Ġbet",
        "ter"
      ],
      [
        "Ġs",
        "oul"
      ],
      [
        "Ġg",
        "l"
      ],
      [
        "d",
        "s"
      ],
      [
        "or",
        "s"
      ],
      [
        "ĠW",
        "ell"
      ],
      [
        "Ġf",
        "ind"
      ],
      [
        "C",
        "E"
      ],
      [
        "p",
        "le"
      ],
      [
        "ĠG",
        "o"
      ],
      [
        "ak",
        "es"
      ],
      [
        "at",
        "ter"
      ],
      [
        "Ġb",
        "est"
      ],
      [
        "et",
        "h"
      ],
      [
        "Ġst",
        "ill"
      ],
      [
        "Ġre",
        "p"
      ],
      [
        "i",
        "ous"
      ],
      [
        "Ġb",
        "oth"
      ],
      [
        "Ġm",
        "a"
      ],
      [
        "Ġke",
        "ep"
      ],
      [
        "e",
        "w"
      ],
      [
        "er",
        "t"
      ],
      [
        "Ġint",
        "o"
      ],
      [
        "ST",
        "A"
      ],
      [
        "Ġe",
        "very"
      ],
      [
        "ea",
        "ce"
      ],
      [
        "Ġm",
        "er"
      ],
      [
        "ĠA",
        "l"
      ],
      [
        "Ġnot",
        "hing"
      ],
      [
        "t",
        "un"
      ],
      [
        "u",
        "ck"
      ],
      [
        "ou",
        "ght"
      ],
      [
        "nt",
        "o"
      ],
      [
        "ĠM",
        "AR"
      ],
      [
        "Ġman",
        "y"
      ],
      [
        "ĠN",
        "or"
      ],
      [
        "K",
        "E"
      ],
      [
        "ĠThe",
        "y"
      ],
      [
        "ĠW",
        "ill"
      ],
      [
        "ON",
        "D"
      ],
      [
        "Ġs",
        "m"
      ],
      [
        "M",
        "AN"
      ],
      [
        "c",
        "ome"
      ],
      [
        "i",
        "ed"
      ],
      [
        "ĠG",
        "ood"
      ],
      [
        "i",
        "er"
      ],
      [
        "Ġb",
        "ra"
      ],
      [
        "c",
        "y"
      ],
      [
        "ha",
        "r"
      ],
      [
        "ĠD",
        "U"
      ],
      [
        "ĠR",
        "ome"
      ],
      [
        "S",
        "S"
      ],
      [
        "Ġp",
        "ut"
      ],
      [
        "IC",
        "H"
      ],
      [
        "Ġm",
        "aster"
      ],
      [
        "c",
        "l"
      ],
      [
        "m",
        "e"
      ],
      [
        "Ġf",
        "ell"
      ],
      [
        "o",
        "ld"
      ],
      [
        "itt",
        "le"
      ],
      [
        "Ġmy",
        "self"
      ],
      [
        "re",
        "n"
      ],
      [
        "at",
        "ch"
      ],
      [
        "ĠR",
        "ICH"
      ],
      [
        "Ġp",
        "ri"
      ],
      [
        "Ġd",
        "aughter"
      ],
      [
        "Ġs",
        "erv"
      ],
      [
        "ĠA",
        "nt"
      ],
      [
        "m",
        "p"
      ],
      [
        "ĠL",
        "E"
      ],
      [
        "ie",
        "ld"
      ],
      [
        "Ġt",
        "ong"
      ],
      [
        "Ġs",
        "et"
      ],
      [
        "hi",
        "p"
      ],
      [
        "Ġfriend",
        "s"
      ],
      [
        "ĠT",
        "han"
      ],
      [
        "Ġli",
        "e"
      ],
      [
        "C",
        "T"
      ],
      [
        "m",
        "en"
      ],
      [
        "Ġey",
        "e"
      ],
      [
        "n",
        "e"
      ],
      [
        "ĠN",
        "ay"
      ],
      [
        "Ġw",
        "ife"
      ],
      [
        "Ġyou",
        "ng"
      ],
      [
        "ĠRICH",
        "ARD"
      ],
      [
        "in",
        "s"
      ],
      [
        "Ġl",
        "ittle"
      ],
      [
        "ĠN",
        "ot"
      ],
      [
        "Ġh",
        "our"
      ],
      [
        "ĠH",
        "er"
      ],
      [
        "ĠB",
        "r"
      ],
      [
        "Ġth",
        "ose"
      ],
      [
        "ĠO",
        "F"
      ],
      [
        "r",
        "ance"
      ],
      [
        "w",
        "ell"
      ],
      [
        "ar",
        "k"
      ],
      [
        "ĠEn",
        "g"
      ],
      [
        "U",
        "T"
      ],
      [
        "a",
        "c"
      ],
      [
        "Ġfo",
        "llow"
      ],
      [
        "ĠSE",
        "C"
      ],
      [
        "r",
        "ant"
      ],
      [
        "Ġf",
        "irst"
      ],
      [
        "ĠL",
        "A"
      ],
      [
        "ĠSEC",
        "OND"
      ],
      [
        "Ġc",
        "hi"
      ],
      [
        "IN",
        "E"
      ],
      [
        "Ġho",
        "ld"
      ],
      [
        "ist",
        "ress"
      ],
      [
        "v",
        "il"
      ],
      [
        "R",
        "Y"
      ],
      [
        "it",
        "s"
      ],
      [
        "re",
        "t"
      ],
      [
        "on",
        "s"
      ],
      [
        "Ġn",
        "at"
      ],
      [
        "E",
        "EN"
      ],
      [
        "in",
        "t"
      ],
      [
        "Ġd",
        "ie"
      ],
      [
        "U",
        "L"
      ],
      [
        "Ġde",
        "ar"
      ],
      [
        "l",
        "f"
      ],
      [
        "Ġpl",
        "ace"
      ],
      [
        "Ġs",
        "le"
      ],
      [
        "t",
        "end"
      ],
      [
        "i",
        "le"
      ],
      [
        "f",
        "or"
      ],
      [
        "ĠSha",
        "ll"
      ],
      [
        "ĠQU",
        "EEN"
      ],
      [
        "es",
        "ar"
      ],
      [
        "Ġcon",
        "f"
      ],
      [
        "a",
        "b"
      ],
      [
        "Ġre",
        "st"
      ],
      [
        "en",
        "s"
      ],
      [
        "Ġg",
        "u"
      ],
      [
        "Ġu",
        "nder"
      ],
      [
        "Ġfa",
        "ll"
      ],
      [
        "Ġf",
        "e"
      ],
      [
        "ut",
        "y"
      ],
      [
        "al",
        "k"
      ],
      [
        "Ġhim",
        "self"
      ],
      [
        "Ġt",
        "ra"
      ],
      [
        "ed",
        "s"
      ],
      [
        "Ġcon",
        "s"
      ],
      [
        "I",
        "M"
      ],
      [
        "l",
        "t"
      ],
      [
        "Ġfa",
        "ce"
      ],
      [
        "Ġth",
        "ine"
      ],
      [
        "ut",
        "h"
      ],
      [
        "Ġlord",
        "s"
      ],
      [
        "Ġm",
        "ind"
      ],
      [
        "Ġg",
        "one"
      ],
      [
        "ĠF",
        "AL"
      ],
      [
        "il",
        "t"
      ],
      [
        "STA",
        "FF"
      ],
      [
        "ĠFAL",
        "STAFF"
      ],
      [
        "ĠC",
        "l"
      ],
      [
        "ĠY",
        "et"
      ],
      [
        "T",
        "ER"
      ],
      [
        "is",
        "on"
      ],
      [
        "Ġe",
        "l"
      ],
      [
        "W",
        "N"
      ],
      [
        "Ġt",
        "ri"
      ],
      [
        "Ġagain",
        "st"
      ],
      [
        ".",
        "âĢĶ"
      ],
      [
        "ou",
        "d"
      ],
      [
        "Ġc",
        "h"
      ],
      [
        "ĠDU",
        "KE"
      ],
      [
        "a",
        "il"
      ],
      [
        "Ġan",
        "sw"
      ],
      [
        "Ġwor",
        "th"
      ],
      [
        "er",
        "ve"
      ],
      [
        "Ġk",
        "ind"
      ],
      [
        "ĠH",
        "ave"
      ],
      [
        "Ġg",
        "i"
      ],
      [
        "in",
        "ess"
      ],
      [
        "Ġp",
        "ass"
      ],
      [
        "ĠL",
        "UC"
      ],
      [
        "ĠCa",
        "esar"
      ],
      [
        "ĠTh",
        "y"
      ],
      [
        "Ġn",
        "one"
      ],
      [
        "I",
        "S"
      ],
      [
        "ou",
        "n"
      ],
      [
        "Ġc",
        "he"
      ],
      [
        "Ġb",
        "oy"
      ],
      [
        "Ġwom",
        "an"
      ],
      [
        "Ġg",
        "rie"
      ],
      [
        "Ġpres",
        "ent"
      ],
      [
        "R",
        "IN"
      ],
      [
        "Ġpl",
        "ay"
      ],
      [
        "g",
        "et"
      ],
      [
        "ow",
        "s"
      ],
      [
        "ir",
        "t"
      ],
      [
        "Ġt",
        "ill"
      ],
      [
        "Ġm",
        "other"
      ],
      [
        "I",
        "D"
      ],
      [
        "on",
        "t"
      ],
      [
        "Ġf",
        "ull"
      ],
      [
        "Ġst",
        "ay"
      ],
      [
        "he",
        "d"
      ],
      [
        "Ġse",
        "em"
      ],
      [
        "Ġsw",
        "ord"
      ],
      [
        "Ġtong",
        "ue"
      ],
      [
        "Ġre",
        "s"
      ],
      [
        "IC",
        "K"
      ],
      [
        "Ġcour",
        "t"
      ],
      [
        "ĠA",
        "ll"
      ],
      [
        "Ġaf",
        "ter"
      ],
      [
        "b",
        "t"
      ],
      [
        "e",
        "ct"
      ],
      [
        "est",
        "y"
      ],
      [
        "Ġc",
        "ur"
      ],
      [
        "Ġt",
        "re"
      ],
      [
        "Ġcha",
        "r"
      ],
      [
        "Ġword",
        "s"
      ],
      [
        "Ġbr",
        "ing"
      ],
      [
        "Ġt",
        "urn"
      ],
      [
        "Ġwho",
        "se"
      ],
      [
        "Ġp",
        "e"
      ],
      [
        "ĠANT",
        "ON"
      ],
      [
        "b",
        "e"
      ],
      [
        "s",
        "ide"
      ],
      [
        "ĠO",
        "ur"
      ],
      [
        "Ġthou",
        "gh"
      ],
      [
        "Ġel",
        "se"
      ],
      [
        "a",
        "le"
      ],
      [
        "s",
        "and"
      ],
      [
        "Ġh",
        "us"
      ],
      [
        "Ġfor",
        "th"
      ],
      [
        "R",
        "ESS"
      ],
      [
        "Ġri",
        "ght"
      ],
      [
        "O",
        "ST"
      ],
      [
        "l",
        "ed"
      ],
      [
        "Ġst",
        "re"
      ],
      [
        "ul",
        "t"
      ],
      [
        "Ġp",
        "eace"
      ],
      [
        "ĠF",
        "rance"
      ],
      [
        "tun",
        "e"
      ],
      [
        "Ġchi",
        "ld"
      ],
      [
        "E",
        "D"
      ],
      [
        "Ġsa",
        "id"
      ],
      [
        "Ġan",
        "other"
      ],
      [
        "ra",
        "ce"
      ],
      [
        "Ġth",
        "r"
      ],
      [
        "ĠA",
        "R"
      ],
      [
        "Ġc",
        "ount"
      ],
      [
        "as",
        "ure"
      ],
      [
        "it",
        "ion"
      ],
      [
        "Ġli",
        "ght"
      ],
      [
        "Ġim",
        "p"
      ],
      [
        "E",
        "M"
      ],
      [
        "Ġbe",
        "l"
      ],
      [
        "Ġd",
        "ra"
      ],
      [
        "ĠP",
        "RIN"
      ],
      [
        "Ġb",
        "ack"
      ],
      [
        "U",
        "N"
      ],
      [
        "i",
        "x"
      ],
      [
        "ĠA",
        "r"
      ],
      [
        "Ġwr",
        "ong"
      ],
      [
        "Ġc",
        "han"
      ],
      [
        "ant",
        "s"
      ],
      [
        "Ġansw",
        "er"
      ],
      [
        "Ġs",
        "ame"
      ],
      [
        "Ġon",
        "ce"
      ],
      [
        "Ġk",
        "ill"
      ],
      [
        "b",
        "and"
      ],
      [
        "et",
        "s"
      ],
      [
        "hi",
        "le"
      ],
      [
        "Ġsp",
        "ir"
      ],
      [
        "Ġre",
        "t"
      ],
      [
        "Ġa",
        "cc"
      ],
      [
        "Ġf",
        "al"
      ],
      [
        "l",
        "p"
      ],
      [
        "Ġre",
        "ason"
      ],
      [
        "I",
        "ST"
      ],
      [
        "Ġb",
        "od"
      ],
      [
        "or",
        "y"
      ],
      [
        "Ġc",
        "rown"
      ],
      [
        "Ġu",
        "nto"
      ],
      [
        "Ġme",
        "an"
      ],
      [
        "A",
        "side"
      ],
      [
        "Ġb",
        "id"
      ],
      [
        "AN",
        "T"
      ],
      [
        "L",
        "ES"
      ],
      [
        "Ġd",
        "re"
      ],
      [
        "Ġha",
        "s"
      ],
      [
        "ĠH",
        "EN"
      ],
      [
        "ee",
        "ch"
      ],
      [
        "ĠAnt",
        "on"
      ],
      [
        "ĠHEN",
        "RY"
      ],
      [
        "a",
        "ir"
      ],
      [
        "or",
        "se"
      ],
      [
        "Ġho",
        "pe"
      ],
      [
        "at",
        "i"
      ],
      [
        "ce",
        "ive"
      ],
      [
        "Ġhus",
        "band"
      ],
      [
        "Ġm",
        "atter"
      ],
      [
        "ĠF",
        "rom"
      ],
      [
        "Ġear",
        "th"
      ],
      [
        "Ġlet",
        "ter"
      ],
      [
        "Ġstr",
        "an"
      ],
      [
        "is",
        "ter"
      ],
      [
        "Ġp",
        "ra"
      ],
      [
        "Ġfa",
        "ith"
      ],
      [
        "ĠU",
        "p"
      ],
      [
        "m",
        "b"
      ],
      [
        "Ġo",
        "ver"
      ],
      [
        "ĠC",
        "LO"
      ],
      [
        ",",
        "âĢĶ"
      ],
      [
        "C",
        "H"
      ],
      [
        "Ġh",
        "um"
      ],
      [
        "Ġme",
        "et"
      ],
      [
        "ri",
        "ed"
      ],
      [
        "Ġv",
        "ill"
      ],
      [
        "ĠJ",
        "o"
      ],
      [
        "Ġp",
        "ower"
      ],
      [
        "ĠA",
        "CT"
      ],
      [
        "ar",
        "y"
      ],
      [
        "ur",
        "y"
      ],
      [
        "Ġab",
        "out"
      ],
      [
        "sel",
        "ves"
      ],
      [
        "Ġd",
        "ou"
      ],
      [
        "Ġin",
        "de"
      ],
      [
        "Ġas",
        "s"
      ],
      [
        "t",
        "w"
      ],
      [
        "Ġhe",
        "ard"
      ],
      [
        "Ġbe",
        "a"
      ],
      [
        "Ġgra",
        "ce"
      ],
      [
        "ĠII",
        "I"
      ],
      [
        "Ġh",
        "ome"
      ],
      [
        "Ġe",
        "ven"
      ],
      [
        "v",
        "y"
      ],
      [
        "Ġh",
        "igh"
      ],
      [
        "Ġm",
        "o"
      ],
      [
        "Ġthou",
        "sand"
      ],
      [
        "ĠâĢ",
        "ĺ"
      ],
      [
        "R",
        "A"
      ],
      [
        "e",
        "al"
      ],
      [
        "Ġth",
        "ree"
      ],
      [
        "Ġsle",
        "ep"
      ],
      [
        "Ġinde",
        "ed"
      ],
      [
        "ĠS",
        "u"
      ],
      [
        "Ġsha",
        "me"
      ],
      [
        "Ġple",
        "ase"
      ],
      [
        "Ġhand",
        "s"
      ],
      [
        "Ġwh",
        "om"
      ],
      [
        "L",
        "ET"
      ],
      [
        "Ġm",
        "on"
      ],
      [
        "Ġb",
        "es"
      ],
      [
        "ĠH",
        "AM"
      ],
      [
        "ĠHAM",
        "LET"
      ],
      [
        "Ġw",
        "ind"
      ],
      [
        "Ġfal",
        "se"
      ],
      [
        "Ġth",
        "ing"
      ],
      [
        "om",
        "et"
      ],
      [
        "Ġc",
        "ause"
      ],
      [
        "Ġv",
        "irt"
      ],
      [
        "fe",
        "ct"
      ],
      [
        "Ġj",
        "ust"
      ],
      [
        "Ġdis",
        "c"
      ],
      [
        "g",
        "ed"
      ],
      [
        "Ġ",
        "i"
      ],
      [
        "Ġdo",
        "st"
      ],
      [
        "Ġhe",
        "nce"
      ],
      [
        "Ġgo",
        "ds"
      ],
      [
        "Ġb",
        "ed"
      ],
      [
        "ĠA",
        "re"
      ],
      [
        "ĠR",
        "e"
      ],
      [
        "Ġsu",
        "b"
      ],
      [
        "Ġma",
        "id"
      ],
      [
        "ĠS",
        "p"
      ],
      [
        "Ġso",
        "ld"
      ],
      [
        "Ġnat",
        "ure"
      ],
      [
        "im",
        "es"
      ],
      [
        "ĠL",
        "u"
      ],
      [
        "pe",
        "ct"
      ],
      [
        "ĠE",
        "D"
      ],
      [
        "Ġthere",
        "fore"
      ],
      [
        "p",
        "h"
      ],
      [
        "Ġm",
        "is"
      ],
      [
        "Ġtr",
        "uth"
      ],
      [
        "Ġm",
        "akes"
      ],
      [
        "ar",
        "s"
      ],
      [
        "ĠUp",
        "on"
      ],
      [
        "i",
        "v"
      ],
      [
        "I",
        "Z"
      ],
      [
        "U",
        "M"
      ],
      [
        "ut",
        "e"
      ],
      [
        "Ġthan",
        "k"
      ],
      [
        "Ġwith",
        "in"
      ],
      [
        "Ġst",
        "ate"
      ],
      [
        "Ġvill",
        "ain"
      ],
      [
        "h",
        "n"
      ],
      [
        "m",
        "s"
      ],
      [
        "Ġgo",
        "ld"
      ],
      [
        "P",
        "E"
      ],
      [
        "e",
        "re"
      ],
      [
        "ĠP",
        "RO"
      ],
      [
        "Ġsu",
        "re"
      ],
      [
        "A",
        "ST"
      ],
      [
        "ard",
        "on"
      ],
      [
        "Ġla",
        "w"
      ],
      [
        "Ġmad",
        "am"
      ],
      [
        "or",
        "k"
      ],
      [
        "Ġn",
        "ear"
      ],
      [
        "an",
        "y"
      ],
      [
        "Ġg",
        "r"
      ],
      [
        "ĠG",
        "ive"
      ],
      [
        "ĠJo",
        "hn"
      ],
      [
        "Ġbre",
        "ak"
      ],
      [
        "Ġu",
        "se"
      ],
      [
        "Ġf",
        "ar"
      ],
      [
        "Ġv",
        "al"
      ],
      [
        "ĠE",
        "d"
      ],
      [
        "T",
        "o"
      ],
      [
        "Ġyou",
        "th"
      ],
      [
        "ĠM",
        "aster"
      ],
      [
        "Ġad",
        "v"
      ],
      [
        "f",
        "ort"
      ],
      [
        "Ġe",
        "re"
      ],
      [
        "ad",
        "e"
      ],
      [
        "ou",
        "ch"
      ],
      [
        "Ġb",
        "us"
      ],
      [
        "Ġc",
        "ar"
      ],
      [
        "Ġth",
        "ings"
      ],
      [
        "ve",
        "re"
      ],
      [
        "n",
        "ing"
      ],
      [
        "Ġs",
        "ent"
      ],
      [
        "Ġb",
        "an"
      ],
      [
        "Ġst",
        "ri"
      ],
      [
        "i",
        "ld"
      ],
      [
        "ous",
        "in"
      ],
      [
        "ci",
        "ous"
      ],
      [
        "Ġ",
        "ill"
      ],
      [
        "Ġf",
        "ight"
      ],
      [
        "Ġc",
        "ame"
      ],
      [
        "our",
        "s"
      ],
      [
        "ie",
        "ve"
      ],
      [
        "ĠRO",
        "S"
      ],
      [
        "ER",
        "O"
      ],
      [
        "ES",
        "TER"
      ],
      [
        "he",
        "s"
      ],
      [
        "Ġb",
        "u"
      ],
      [
        "Ġo",
        "b"
      ],
      [
        "ĠEng",
        "land"
      ],
      [
        "O",
        "M"
      ],
      [
        "Ġt",
        "ears"
      ],
      [
        "Ġh",
        "ither"
      ],
      [
        "Ġha",
        "pp"
      ],
      [
        "p",
        "en"
      ],
      [
        "Ġc",
        "oun"
      ],
      [
        "Ġk",
        "iss"
      ],
      [
        "che",
        "s"
      ],
      [
        "A",
        "B"
      ],
      [
        "ent",
        "s"
      ],
      [
        "ct",
        "or"
      ],
      [
        "Ġl",
        "ast"
      ],
      [
        "Ġy",
        "e"
      ],
      [
        "ĠQ",
        "ue"
      ],
      [
        "Ġnew",
        "s"
      ],
      [
        "Ġhe",
        "lp"
      ],
      [
        "EL",
        "LO"
      ],
      [
        "Ġbod",
        "y"
      ],
      [
        "Ġb",
        "o"
      ],
      [
        "UC",
        "H"
      ],
      [
        "Ġf",
        "ire"
      ],
      [
        "at",
        "es"
      ],
      [
        "Ġwe",
        "l"
      ],
      [
        "Ġs",
        "ound"
      ],
      [
        "ĠL",
        "ORD"
      ],
      [
        "Ġgrie",
        "f"
      ],
      [
        "ĠW",
        "ould"
      ],
      [
        "Ġsha",
        "lt"
      ],
      [
        "ET",
        "H"
      ],
      [
        "Ġen",
        "ough"
      ],
      [
        "G",
        "AR"
      ],
      [
        "n",
        "s"
      ],
      [
        "Ġha",
        "ng"
      ],
      [
        "ĠQue",
        "en"
      ],
      [
        "ĠD",
        "id"
      ],
      [
        "Ġse",
        "c"
      ],
      [
        "d",
        "ay"
      ],
      [
        "y",
        "al"
      ],
      [
        "ĠS",
        "h"
      ],
      [
        "ver",
        "s"
      ],
      [
        "Ġdo",
        "es"
      ],
      [
        "Ġgentle",
        "man"
      ],
      [
        "har",
        "d"
      ],
      [
        "Ġfell",
        "ow"
      ],
      [
        "ĠCLO",
        "WN"
      ],
      [
        "Ġs",
        "ince"
      ],
      [
        "Ġm",
        "istress"
      ],
      [
        "Ġwith",
        "out"
      ],
      [
        "get",
        "her"
      ],
      [
        "O",
        "B"
      ],
      [
        "r",
        "ing"
      ],
      [
        "ion",
        "s"
      ],
      [
        "che",
        "d"
      ],
      [
        "d",
        "d"
      ],
      [
        "u",
        "nd"
      ],
      [
        "Ġg",
        "re"
      ],
      [
        "ĠL",
        "ook"
      ],
      [
        "ain",
        "s"
      ],
      [
        "ĠR",
        "o"
      ],
      [
        "Ġqu",
        "een"
      ],
      [
        "ĠPRIN",
        "CE"
      ],
      [
        "ĠThere",
        "fore"
      ],
      [
        "ĠO",
        "n"
      ],
      [
        "Ġr",
        "ather"
      ],
      [
        "Ġstr",
        "ong"
      ],
      [
        "Ġc",
        "are"
      ],
      [
        "ĠH",
        "ath"
      ],
      [
        "Ġse",
        "en"
      ],
      [
        "ĠY",
        "ork"
      ],
      [
        "Ġhon",
        "est"
      ],
      [
        ".",
        "âĢĿ"
      ],
      [
        "i",
        "ly"
      ],
      [
        "Ġwe",
        "ep"
      ],
      [
        "i",
        "ke"
      ],
      [
        "o",
        "p"
      ],
      [
        "u",
        "es"
      ],
      [
        "Ġl",
        "ay"
      ],
      [
        "en",
        "er"
      ],
      [
        "ĠA",
        "L"
      ],
      [
        "al",
        "ace"
      ],
      [
        "Ġthr",
        "ough"
      ],
      [
        "ĠB",
        "R"
      ],
      [
        "ĠBe",
        "fore"
      ],
      [
        "Ġbre",
        "ath"
      ],
      [
        "i",
        "ers"
      ],
      [
        "Ġin",
        "st"
      ],
      [
        "Ġde",
        "vil"
      ],
      [
        "el",
        "s"
      ],
      [
        "Ġen",
        "em"
      ],
      [
        "at",
        "t"
      ],
      [
        "ĠM",
        "AC"
      ],
      [
        "ĠThe",
        "se"
      ],
      [
        "Ġsu",
        "n"
      ],
      [
        "Ġfa",
        "ult"
      ],
      [
        "e",
        "red"
      ],
      [
        "j",
        "ect"
      ],
      [
        "ĠI",
        "V"
      ],
      [
        "Ġl",
        "and"
      ],
      [
        "e",
        "ed"
      ],
      [
        "en",
        "ry"
      ],
      [
        "Ġsa",
        "w"
      ],
      [
        "w",
        "een"
      ],
      [
        "Ġw",
        "hy"
      ],
      [
        "Ġp",
        "ers"
      ],
      [
        "ĠE",
        "ven"
      ],
      [
        "Ġpro",
        "ve"
      ],
      [
        "Ġpur",
        "p"
      ],
      [
        "B",
        "ER"
      ],
      [
        "ha",
        "m"
      ],
      [
        "Ġc",
        "ousin"
      ],
      [
        "us",
        "ic"
      ],
      [
        "ces",
        "ter"
      ],
      [
        "u",
        "se"
      ],
      [
        "Ġs",
        "omet"
      ],
      [
        "ĠT",
        "ro"
      ],
      [
        "ĠH",
        "enry"
      ],
      [
        "Ġen",
        "ter"
      ],
      [
        "Ġd",
        "an"
      ],
      [
        "Ġj",
        "oy"
      ],
      [
        "UT",
        "US"
      ],
      [
        "Ġp",
        "ati"
      ],
      [
        "ho",
        "ld"
      ],
      [
        "Ġarm",
        "s"
      ],
      [
        "ĠBR",
        "UTUS"
      ],
      [
        "n",
        "er"
      ],
      [
        "Ġs",
        "orrow"
      ],
      [
        "ĠS",
        "H"
      ],
      [
        "O",
        "P"
      ],
      [
        "Ġse",
        "a"
      ],
      [
        "Ġcomm",
        "and"
      ],
      [
        "ĠPr",
        "ince"
      ],
      [
        "Ġstran",
        "ge"
      ],
      [
        "a",
        "v"
      ],
      [
        "ĠC",
        "H"
      ],
      [
        "ĠM",
        "ay"
      ],
      [
        "Ġun",
        "c"
      ],
      [
        "Ġwel",
        "come"
      ],
      [
        "n",
        "ed"
      ],
      [
        "Ġ",
        "ent"
      ],
      [
        "Ġyour",
        "self"
      ],
      [
        "ĠG",
        "l"
      ],
      [
        "Ġlo",
        "st"
      ],
      [
        "Ġbea",
        "uty"
      ],
      [
        "d",
        "er"
      ],
      [
        "r",
        "an"
      ],
      [
        "Ġof",
        "t"
      ],
      [
        "ĠS",
        "IR"
      ],
      [
        "Ġrem",
        "em"
      ],
      [
        "AG",
        "O"
      ],
      [
        "IM",
        "ON"
      ],
      [
        "a",
        "w"
      ],
      [
        "E",
        "US"
      ],
      [
        "Ġme",
        "ans"
      ],
      [
        "ĠO",
        "TH"
      ],
      [
        "ER",
        "V"
      ],
      [
        "j",
        "esty"
      ],
      [
        "k",
        "en"
      ],
      [
        "Ġw",
        "ant"
      ],
      [
        "ĠROS",
        "AL"
      ],
      [
        "ĠOTH",
        "ELLO"
      ],
      [
        "i",
        "z"
      ],
      [
        "Ġc",
        "a"
      ],
      [
        "id",
        "es"
      ],
      [
        "Ġon",
        "ly"
      ],
      [
        "Ġbl",
        "ess"
      ],
      [
        "Ġg",
        "row"
      ],
      [
        "at",
        "s"
      ],
      [
        "ĠC",
        "an"
      ],
      [
        "Ġst",
        "ra"
      ],
      [
        "Ġdis",
        "p"
      ],
      [
        "l",
        "et"
      ],
      [
        "ĠS",
        "ERV"
      ],
      [
        "ĠG",
        "R"
      ],
      [
        "Ġspir",
        "it"
      ],
      [
        "o",
        "e"
      ],
      [
        "ĠI",
        "AGO"
      ],
      [
        "ĠR",
        "ic"
      ],
      [
        "ĠAnton",
        "y"
      ],
      [
        "is",
        "ed"
      ],
      [
        "Ġd",
        "ru"
      ],
      [
        "Ġse",
        "nd"
      ],
      [
        "Ġs",
        "ing"
      ],
      [
        "Ġf",
        "oul"
      ],
      [
        "st",
        "er"
      ],
      [
        "ĠF",
        "are"
      ],
      [
        "g",
        "s"
      ],
      [
        "Ġl",
        "ess"
      ],
      [
        "Ġpr",
        "ince"
      ],
      [
        "Ġret",
        "urn"
      ],
      [
        "Ġh",
        "orse"
      ],
      [
        "ĠM",
        "IST"
      ],
      [
        "Ġfor",
        "tune"
      ],
      [
        "Ġsp",
        "o"
      ],
      [
        "ĠRic",
        "hard"
      ],
      [
        "ĠMIST",
        "RESS"
      ],
      [
        "Ġt",
        "em"
      ],
      [
        "Ġt",
        "alk"
      ],
      [
        "Ġw",
        "ish"
      ],
      [
        "Ġsw",
        "ear"
      ],
      [
        "i",
        "et"
      ],
      [
        "ot",
        "t"
      ],
      [
        "Ġg",
        "et"
      ],
      [
        "ĠWho",
        "se"
      ],
      [
        "ĠLE",
        "ON"
      ],
      [
        "ĠCA",
        "SS"
      ],
      [
        "Ġc",
        "ry"
      ],
      [
        "Ġne",
        "ed"
      ],
      [
        "ĠG",
        "race"
      ],
      [
        "D",
        "Y"
      ],
      [
        "Ġto",
        "gether"
      ],
      [
        "Ġyour",
        "s"
      ],
      [
        "Ġat",
        "tend"
      ],
      [
        "Ġdis",
        "t"
      ],
      [
        "Ġle",
        "ft"
      ],
      [
        "Ġthought",
        "s"
      ],
      [
        "ou",
        "cester"
      ],
      [
        "is",
        "hed"
      ],
      [
        "Ġf",
        "ree"
      ],
      [
        "one",
        "y"
      ],
      [
        "Ġs",
        "ight"
      ],
      [
        "ĠG",
        "ENT"
      ],
      [
        "Ġpr",
        "ison"
      ],
      [
        "Ġdes",
        "ire"
      ],
      [
        "ĠGENT",
        "LE"
      ],
      [
        "Ġb",
        "orn"
      ],
      [
        "ren",
        "ch"
      ],
      [
        "ĠANTON",
        "Y"
      ],
      [
        "Ġm",
        "ur"
      ],
      [
        "ĠS",
        "ome"
      ],
      [
        "ĠThou",
        "gh"
      ],
      [
        "Ġcount",
        "ry"
      ],
      [
        "ĠGl",
        "oucester"
      ],
      [
        "Ġp",
        "ardon"
      ],
      [
        "ĠW",
        "ar"
      ],
      [
        "ĠE",
        "x"
      ],
      [
        "Ġre",
        "ad"
      ],
      [
        "ĠG",
        "LO"
      ],
      [
        "UC",
        "ESTER"
      ],
      [
        "Ġhar",
        "d"
      ],
      [
        "ĠGLO",
        "UCESTER"
      ],
      [
        "ĠB",
        "O"
      ],
      [
        "ĠF",
        "R"
      ],
      [
        "ro",
        "ss"
      ],
      [
        "if",
        "t"
      ],
      [
        "Ġal",
        "one"
      ],
      [
        "r",
        "ink"
      ],
      [
        "Ġp",
        "rom"
      ],
      [
        "Ġit",
        "self"
      ],
      [
        "Ġli",
        "es"
      ],
      [
        "u",
        "res"
      ],
      [
        "Ġs",
        "ick"
      ],
      [
        "Ġd",
        "en"
      ],
      [
        "OR",
        "T"
      ],
      [
        "Ġex",
        "ce"
      ],
      [
        "Ġw",
        "ilt"
      ],
      [
        "ĠP",
        "ro"
      ],
      [
        "ĠU",
        "n"
      ],
      [
        "ou",
        "th"
      ],
      [
        "ET",
        "R"
      ],
      [
        "Ġbus",
        "iness"
      ],
      [
        "m",
        "er"
      ],
      [
        "Ġf",
        "ly"
      ],
      [
        "ĠW",
        "as"
      ],
      [
        "Ġsu",
        "pp"
      ],
      [
        "w",
        "ick"
      ],
      [
        "ĠT",
        "ill"
      ],
      [
        "Ġp",
        "ity"
      ],
      [
        "Ġto",
        "ld"
      ],
      [
        "Ġde",
        "l"
      ],
      [
        "Ġsay",
        "s"
      ],
      [
        "Ġj",
        "ud"
      ],
      [
        "c",
        "ed"
      ],
      [
        "d",
        "om"
      ],
      [
        "ĠC",
        "OR"
      ],
      [
        "ĠC",
        "ass"
      ],
      [
        "Ġcom",
        "fort"
      ],
      [
        "Ġpr",
        "oud"
      ],
      [
        "ond",
        "er"
      ],
      [
        "b",
        "y"
      ],
      [
        "Ġf",
        "ound"
      ],
      [
        "ĠM",
        "ore"
      ],
      [
        "Ġro",
        "yal"
      ],
      [
        "Ġs",
        "ad"
      ],
      [
        "Ġde",
        "f"
      ],
      [
        "gain",
        "st"
      ],
      [
        "ĠP",
        "er"
      ],
      [
        "Ġv",
        "o"
      ],
      [
        "T",
        "he"
      ],
      [
        "Ġha",
        "lf"
      ],
      [
        "Ġsee",
        "k"
      ],
      [
        "ert",
        "ain"
      ],
      [
        "L",
        "I"
      ],
      [
        "Ġw",
        "at"
      ],
      [
        "Ġg",
        "ener"
      ],
      [
        "ĠN",
        "e"
      ],
      [
        "Ġdou",
        "bt"
      ],
      [
        "m",
        "ed"
      ],
      [
        "Ġs",
        "il"
      ],
      [
        "Ġl",
        "ate"
      ],
      [
        "Ġg",
        "ave"
      ],
      [
        "AN",
        "IO"
      ],
      [
        "ĠGENTLE",
        "MAN"
      ],
      [
        "o",
        "ple"
      ],
      [
        "ound",
        "s"
      ],
      [
        "ĠJ",
        "UL"
      ],
      [
        "li",
        "ke"
      ],
      [
        "ĠWar",
        "wick"
      ],
      [
        "Ġf",
        "ield"
      ],
      [
        "Ġc",
        "ra"
      ],
      [
        "Ġre",
        "c"
      ],
      [
        "Ġs",
        "ister"
      ],
      [
        "Ġro",
        "om"
      ],
      [
        "Ġco",
        "ld"
      ],
      [
        "L",
        "AND"
      ],
      [
        "Ġa",
        "w"
      ],
      [
        "Ġs",
        "k"
      ],
      [
        "ĠS",
        "w"
      ],
      [
        "ro",
        "ke"
      ],
      [
        "Ġwor",
        "k"
      ],
      [
        "Ġdra",
        "w"
      ],
      [
        "it",
        "or"
      ],
      [
        "Ġin",
        "f"
      ],
      [
        "ĠC",
        "LE"
      ],
      [
        "Ġde",
        "p"
      ],
      [
        "Ġfa",
        "re"
      ],
      [
        "Ġv",
        "i"
      ],
      [
        "Ġserv",
        "ice"
      ],
      [
        "l",
        "ish"
      ],
      [
        "Y",
        "R"
      ],
      [
        "l",
        "s"
      ],
      [
        "it",
        "he"
      ],
      [
        "Ġo",
        "ath"
      ],
      [
        "Ġwe",
        "ar"
      ],
      [
        "Ġlook",
        "s"
      ],
      [
        "l",
        "ing"
      ],
      [
        "u",
        "p"
      ],
      [
        "Ġt",
        "end"
      ],
      [
        "Ġs",
        "erve"
      ],
      [
        "Ġm",
        "et"
      ],
      [
        "an",
        "g"
      ],
      [
        "ĠF",
        "rench"
      ],
      [
        "Ġre",
        "ven"
      ],
      [
        "ĠĠĠĠĠĠĠĠ",
        "ĠĠĠ"
      ],
      [
        "Ġblood",
        "y"
      ],
      [
        "Ġru",
        "n"
      ],
      [
        "a",
        "ff"
      ],
      [
        "f",
        "ord"
      ],
      [
        "Ġb",
        "ri"
      ],
      [
        "ĠT",
        "ake"
      ],
      [
        "et",
        "er"
      ],
      [
        "ĠP",
        "AG"
      ],
      [
        "re",
        "w"
      ],
      [
        "om",
        "an"
      ],
      [
        "Ġe",
        "ach"
      ],
      [
        "ĠPAG",
        "E"
      ],
      [
        "S",
        "P"
      ],
      [
        "c",
        "ess"
      ],
      [
        "Ġf",
        "ore"
      ],
      [
        "Ġhat",
        "e"
      ],
      [
        "AT",
        "H"
      ],
      [
        "Ġqu",
        "ick"
      ],
      [
        "Ġw",
        "in"
      ],
      [
        "Ġd",
        "are"
      ],
      [
        "ĠL",
        "ike"
      ],
      [
        "Ġlo",
        "se"
      ],
      [
        "Ġbet",
        "ween"
      ],
      [
        "Ġs",
        "in"
      ],
      [
        "Ġs",
        "en"
      ],
      [
        "Ġb",
        "ir"
      ],
      [
        "Ġf",
        "ur"
      ],
      [
        "ĠB",
        "A"
      ],
      [
        "Ġle",
        "ad"
      ],
      [
        "b",
        "our"
      ],
      [
        "Ġa",
        "ge"
      ],
      [
        "Ġthy",
        "self"
      ],
      [
        "ĠWe",
        "re"
      ],
      [
        "Ġmar",
        "k"
      ],
      [
        "Ġpe",
        "ople"
      ],
      [
        "D",
        "ER"
      ],
      [
        "x",
        "t"
      ],
      [
        "ĠS",
        "ay"
      ],
      [
        "Ġso",
        "on"
      ],
      [
        "ĠLA",
        "DY"
      ],
      [
        "ĠEd",
        "ward"
      ],
      [
        "Ġpurp",
        "ose"
      ],
      [
        "ĠY",
        "es"
      ],
      [
        "Ġfo",
        "ot"
      ],
      [
        "ĠPr",
        "ay"
      ],
      [
        "U",
        "FF"
      ],
      [
        "Ġa",
        "ir"
      ],
      [
        "ĠC",
        "om"
      ],
      [
        "a",
        "z"
      ],
      [
        "Ġl",
        "ear"
      ],
      [
        "Ġt",
        "imes"
      ],
      [
        "Ġsu",
        "ff"
      ],
      [
        "ment",
        "s"
      ],
      [
        "i",
        "al"
      ],
      [
        "m",
        "ost"
      ],
      [
        "Ġm",
        "usic"
      ],
      [
        "ĠD",
        "e"
      ],
      [
        "Ġple",
        "as"
      ],
      [
        "v",
        "ent"
      ],
      [
        "ĠM",
        "ESS"
      ],
      [
        "al",
        "th"
      ],
      [
        "Ġas",
        "k"
      ],
      [
        "Ġ",
        "("
      ],
      [
        "Ġd",
        "am"
      ],
      [
        "Ġc",
        "ho"
      ],
      [
        "Ġc",
        "ond"
      ],
      [
        "Ġdre",
        "am"
      ],
      [
        "Ġdan",
        "ger"
      ],
      [
        "ut",
        "us"
      ],
      [
        "Ġknow",
        "s"
      ],
      [
        "Ġbes",
        "eech"
      ],
      [
        "v",
        "our"
      ],
      [
        "Ġw",
        "a"
      ],
      [
        "ĠT",
        "IMON"
      ],
      [
        "ĠM",
        "EN"
      ],
      [
        "oo",
        "se"
      ],
      [
        "ithe",
        "e"
      ],
      [
        "im",
        "on"
      ],
      [
        "Ġde",
        "ep"
      ],
      [
        "ak",
        "ing"
      ],
      [
        "Ġcomp",
        "any"
      ],
      [
        "ĠSp",
        "eak"
      ],
      [
        "er",
        "y"
      ],
      [
        "Ġli",
        "ves"
      ],
      [
        "Ġlo",
        "ves"
      ],
      [
        "ĠS",
        "erv"
      ],
      [
        "IN",
        "D"
      ],
      [
        "Ġkn",
        "ight"
      ],
      [
        "Ġchar",
        "ge"
      ],
      [
        "B",
        "ETH"
      ],
      [
        "Ġt",
        "er"
      ],
      [
        "Ġa",
        "ff"
      ],
      [
        "Ġm",
        "in"
      ],
      [
        "ĠH",
        "a"
      ],
      [
        "ĠO",
        "ne"
      ],
      [
        "Ġbr",
        "ought"
      ],
      [
        "Ġgra",
        "ve"
      ],
      [
        "Ġcomm",
        "on"
      ],
      [
        "ĠMAC",
        "BETH"
      ],
      [
        ",",
        "âĢĿ"
      ],
      [
        "ar",
        "ry"
      ],
      [
        "ĠH",
        "EL"
      ],
      [
        "ĠP",
        "l"
      ],
      [
        "ĠF",
        "l"
      ],
      [
        "ĠL",
        "e"
      ],
      [
        "ic",
        "es"
      ],
      [
        "Ġy",
        "ield"
      ],
      [
        "ĠM",
        "ost"
      ],
      [
        "ĠY",
        "OR"
      ],
      [
        "IN",
        "A"
      ],
      [
        "IN",
        "IUS"
      ],
      [
        "AT",
        "RA"
      ],
      [
        "Ġday",
        "s"
      ],
      [
        "Ġworth",
        "y"
      ],
      [
        "Ġbel",
        "ieve"
      ],
      [
        "OP",
        "ATRA"
      ],
      [
        "ĠCLE",
        "OPATRA"
      ],
      [
        "ĠYOR",
        "K"
      ],
      [
        "Ġgener",
        "al"
      ],
      [
        "E",
        "W"
      ],
      [
        "G",
        "ER"
      ],
      [
        "Ġw",
        "hile"
      ],
      [
        "re",
        "st"
      ],
      [
        "ĠP",
        "AR"
      ],
      [
        "Ġother",
        "s"
      ],
      [
        "g",
        "ue"
      ],
      [
        "n",
        "ow"
      ],
      [
        "Ġs",
        "it"
      ],
      [
        "ĠS",
        "YR"
      ],
      [
        "US",
        "E"
      ],
      [
        "ĠAn",
        "other"
      ],
      [
        "Ġcont",
        "ent"
      ],
      [
        "AC",
        "USE"
      ],
      [
        "ĠMAR",
        "GAR"
      ],
      [
        "ĠSYR",
        "ACUSE"
      ],
      [
        "Ġd",
        "rink"
      ],
      [
        "Ġc",
        "ertain"
      ],
      [
        "fe",
        "ction"
      ],
      [
        "OL",
        "K"
      ],
      [
        "Ġtru",
        "st"
      ],
      [
        "IL",
        "IA"
      ],
      [
        "IAN",
        "A"
      ],
      [
        "Ġfur",
        "ther"
      ],
      [
        "T",
        "ES"
      ],
      [
        "Ġw",
        "ise"
      ],
      [
        "Ġb",
        "ar"
      ],
      [
        "Ġb",
        "ound"
      ],
      [
        "Ġy",
        "ears"
      ],
      [
        "ĠM",
        "ad"
      ],
      [
        "ĠBr",
        "utus"
      ],
      [
        "UN",
        "T"
      ],
      [
        "ĠROSAL",
        "IND"
      ],
      [
        "L",
        "Y"
      ],
      [
        "a",
        "im"
      ],
      [
        "c",
        "ause"
      ],
      [
        "ess",
        "en"
      ],
      [
        "EL",
        "IA"
      ],
      [
        "Ġwar",
        "rant"
      ],
      [
        "ĠANT",
        "I"
      ],
      [
        "Ġunc",
        "le"
      ],
      [
        "b",
        "s"
      ],
      [
        "i",
        "ves"
      ],
      [
        "ĠC",
        "h"
      ],
      [
        "Ġfor",
        "g"
      ],
      [
        "IC",
        "E"
      ],
      [
        "Ġhapp",
        "y"
      ],
      [
        "ĠMARGAR",
        "ET"
      ],
      [
        "Ġp",
        "ar"
      ],
      [
        "am",
        "p"
      ],
      [
        "Ġbra",
        "ve"
      ],
      [
        "Ġvirt",
        "ue"
      ],
      [
        "D",
        "R"
      ],
      [
        "Ġm",
        "orn"
      ],
      [
        "Ġf",
        "it"
      ],
      [
        "Ġl",
        "ad"
      ],
      [
        "ĠM",
        "istress"
      ],
      [
        "Ġsu",
        "m"
      ],
      [
        "Ġknow",
        "n"
      ],
      [
        "Ġex",
        "p"
      ],
      [
        "Ġc",
        "ut"
      ],
      [
        "ĠC",
        "IT"
      ],
      [
        "ent",
        "y"
      ],
      [
        "hi",
        "l"
      ],
      [
        "ĠK",
        "ATH"
      ],
      [
        "ie",
        "f"
      ],
      [
        "Ġho",
        "ly"
      ],
      [
        "Ġsa",
        "ve"
      ],
      [
        "Ġple",
        "asure"
      ],
      [
        "IZ",
        "EN"
      ],
      [
        "ĠCIT",
        "IZEN"
      ],
      [
        "E",
        "Y"
      ],
      [
        "i",
        "ble"
      ],
      [
        "Ġa",
        "ct"
      ],
      [
        "est",
        "ion"
      ],
      [
        "th",
        "ing"
      ],
      [
        "os",
        "s"
      ],
      [
        "k",
        "es"
      ],
      [
        "o",
        "or"
      ],
      [
        "Ġw",
        "oe"
      ],
      [
        "Ġc",
        "or"
      ],
      [
        "EN",
        "GER"
      ],
      [
        "Ġse",
        "lf"
      ],
      [
        "ĠFare",
        "well"
      ],
      [
        "ĠMESS",
        "ENGER"
      ],
      [
        "Ġs",
        "ur"
      ],
      [
        "Ġin",
        "c"
      ],
      [
        "ĠH",
        "ad"
      ],
      [
        "ol",
        "k"
      ],
      [
        "ĠMar",
        "ry"
      ],
      [
        "Ġgi",
        "ven"
      ],
      [
        "V",
        "IA"
      ],
      [
        "Ġb",
        "old"
      ],
      [
        "on",
        "ight"
      ],
      [
        "Ġp",
        "ay"
      ],
      [
        "Ġp",
        "ast"
      ],
      [
        "Ġbl",
        "ack"
      ],
      [
        "RO",
        "M"
      ],
      [
        "ĠSERV",
        "ANT"
      ],
      [
        "t",
        "he"
      ],
      [
        "Ġm",
        "oney"
      ],
      [
        "Ġpo",
        "ss"
      ],
      [
        "Ġmar",
        "ry"
      ],
      [
        "ĠAl",
        "as"
      ],
      [
        "Ġs",
        "ide"
      ],
      [
        "ha",
        "l"
      ],
      [
        "ĠLE",
        "AR"
      ],
      [
        "m",
        "orrow"
      ],
      [
        "Ġs",
        "ake"
      ],
      [
        "Ġc",
        "ol"
      ],
      [
        "Ġo",
        "pen"
      ],
      [
        "ri",
        "es"
      ],
      [
        "Ġst",
        "e"
      ],
      [
        "Ġgra",
        "cious"
      ],
      [
        "Ġgr",
        "ound"
      ],
      [
        "ĠRo",
        "om"
      ],
      [
        "Ġa",
        "c"
      ],
      [
        "ĠW",
        "AR"
      ],
      [
        "AN",
        "US"
      ],
      [
        "au",
        "ght"
      ],
      [
        "Ġri",
        "ch"
      ],
      [
        "b",
        "b"
      ],
      [
        "Ġhe",
        "ll"
      ],
      [
        "ĠS",
        "ee"
      ],
      [
        "ĠP",
        "age"
      ],
      [
        "Ġso",
        "vere"
      ],
      [
        "Ġpra",
        "ise"
      ],
      [
        "W",
        "ICK"
      ],
      [
        "ĠT",
        "ell"
      ],
      [
        "ow",
        "ard"
      ],
      [
        "ĠP",
        "AND"
      ],
      [
        "ĠL",
        "ady"
      ],
      [
        "IR",
        "D"
      ],
      [
        "Ġpo",
        "int"
      ],
      [
        "ĠTH",
        "IRD"
      ],
      [
        "A",
        "S"
      ],
      [
        "o",
        "int"
      ],
      [
        "Ġt",
        "en"
      ],
      [
        "ĠS",
        "ince"
      ],
      [
        "ĠM",
        "ake"
      ],
      [
        "ĠF",
        "ORD"
      ],
      [
        "au",
        "d"
      ],
      [
        "Ġear",
        "s"
      ],
      [
        "ĠAt",
        "tend"
      ],
      [
        "ĠMad",
        "am"
      ],
      [
        "ĠWAR",
        "WICK"
      ],
      [
        "O",
        "G"
      ],
      [
        "O",
        "T"
      ],
      [
        "W",
        "ARD"
      ],
      [
        "Ġb",
        "urn"
      ],
      [
        "ll",
        "y"
      ],
      [
        "Ġd",
        "iv"
      ],
      [
        "Ġg",
        "all"
      ],
      [
        "Ġe",
        "at"
      ],
      [
        "ER",
        "S"
      ],
      [
        "ĠTh",
        "us"
      ],
      [
        "Ġhea",
        "vy"
      ],
      [
        "Ġrep",
        "ort"
      ],
      [
        "Ġche",
        "e"
      ],
      [
        "Ġto",
        "morrow"
      ],
      [
        "ot",
        "s"
      ],
      [
        "ge",
        "l"
      ],
      [
        "ie",
        "ce"
      ],
      [
        "Ġgo",
        "es"
      ],
      [
        "EL",
        "L"
      ],
      [
        "Ġpro",
        "f"
      ],
      [
        "Ġt",
        "onight"
      ],
      [
        "Ġh",
        "ot"
      ],
      [
        "Ġbe",
        "at"
      ],
      [
        "Ġe",
        "m"
      ],
      [
        "us",
        "h"
      ],
      [
        "Ġsh",
        "ort"
      ],
      [
        "Ġwom",
        "en"
      ],
      [
        "ĠEng",
        "lish"
      ],
      [
        "oo",
        "f"
      ],
      [
        "ĠP",
        "ER"
      ],
      [
        "Ġv",
        "is"
      ],
      [
        "Ġthem",
        "selves"
      ],
      [
        "D",
        "O"
      ],
      [
        "c",
        "ent"
      ],
      [
        "Ġm",
        "outh"
      ],
      [
        "Ġw",
        "is"
      ],
      [
        "Ġg",
        "ar"
      ],
      [
        "Ġre",
        "qu"
      ],
      [
        "ĠD",
        "ON"
      ],
      [
        "ort",
        "al"
      ],
      [
        "OL",
        "US"
      ],
      [
        "Ġheart",
        "s"
      ],
      [
        "PH",
        "OLUS"
      ],
      [
        "for",
        "m"
      ],
      [
        "Ġtend",
        "er"
      ],
      [
        "ĠANTI",
        "PHOLUS"
      ],
      [
        "e",
        "c"
      ],
      [
        "s",
        "hip"
      ],
      [
        "Ġs",
        "ign"
      ],
      [
        "H",
        "N"
      ],
      [
        "ĠJ",
        "O"
      ],
      [
        "UC",
        "K"
      ],
      [
        "Ġmer",
        "cy"
      ],
      [
        "Ġpers",
        "on"
      ],
      [
        "Ġjud",
        "ge"
      ],
      [
        "ink",
        "s"
      ],
      [
        "Ġenem",
        "y"
      ],
      [
        "i",
        "ant"
      ],
      [
        "ĠA",
        "way"
      ],
      [
        "ow",
        "ers"
      ],
      [
        "Ġwe",
        "ak"
      ],
      [
        "g",
        "ar"
      ],
      [
        "in",
        "ed"
      ],
      [
        "Ġf",
        "our"
      ],
      [
        "es",
        "h"
      ],
      [
        "ot",
        "e"
      ],
      [
        "ĠW",
        "h"
      ],
      [
        "ce",
        "ed"
      ],
      [
        "Ġmer",
        "ry"
      ],
      [
        "Ġremem",
        "ber"
      ],
      [
        "M",
        "ILIA"
      ],
      [
        "i",
        "p"
      ],
      [
        "Ġm",
        "ock"
      ],
      [
        "ĠM",
        "a"
      ],
      [
        "ĠL",
        "ond"
      ],
      [
        "al",
        "t"
      ],
      [
        "ĠE",
        "MILIA"
      ],
      [
        "Ġli",
        "ps"
      ],
      [
        "Ġsu",
        "it"
      ],
      [
        "Ġkn",
        "ave"
      ],
      [
        "all",
        "y"
      ],
      [
        "ĠV",
        "AL"
      ],
      [
        "Ġconf",
        "ess"
      ],
      [
        "Ġsub",
        "ject"
      ],
      [
        "ĠJO",
        "HN"
      ],
      [
        "ĠLond",
        "on"
      ],
      [
        "r",
        "ay"
      ],
      [
        "Ġ",
        "est"
      ],
      [
        "Ġkn",
        "ew"
      ],
      [
        "um",
        "ber"
      ],
      [
        "Ġcour",
        "se"
      ],
      [
        "Ġpati",
        "ence"
      ],
      [
        "Ġfare",
        "well"
      ],
      [
        "c",
        "ha"
      ],
      [
        "AR",
        "US"
      ],
      [
        "ast",
        "le"
      ],
      [
        "ON",
        "A"
      ],
      [
        "Ġne",
        "ither"
      ],
      [
        "u",
        "ff"
      ],
      [
        "Ġw",
        "oo"
      ],
      [
        "ĠT",
        "IT"
      ],
      [
        "Ġbe",
        "hold"
      ],
      [
        "Ġha",
        "ir"
      ],
      [
        "ĠO",
        "ut"
      ],
      [
        "Ġat",
        "t"
      ],
      [
        "Ġr",
        "ing"
      ],
      [
        "ĠANTON",
        "IO"
      ],
      [
        "l",
        "en"
      ],
      [
        "r",
        "s"
      ],
      [
        "Ġ",
        "1"
      ],
      [
        "Ġd",
        "ro"
      ],
      [
        "ĠA",
        "d"
      ],
      [
        "Ġp",
        "en"
      ],
      [
        "Ġp",
        "alace"
      ],
      [
        "at",
        "is"
      ],
      [
        "at",
        "ed"
      ],
      [
        "ĠC",
        "on"
      ],
      [
        "al",
        "m"
      ],
      [
        "Ġde",
        "ed"
      ],
      [
        "Ġne",
        "xt"
      ],
      [
        "Ġdes",
        "p"
      ],
      [
        "Ġson",
        "s"
      ],
      [
        "i",
        "res"
      ],
      [
        "Ġt",
        "ouch"
      ],
      [
        "Ġb",
        "os"
      ],
      [
        "Ġb",
        "ase"
      ],
      [
        "ĠThe",
        "ir"
      ],
      [
        "as",
        "k"
      ],
      [
        "ra",
        "m"
      ],
      [
        "Ġpl",
        "ain"
      ],
      [
        "Ġchan",
        "ge"
      ],
      [
        "ĠHEL",
        "EN"
      ],
      [
        "U",
        "D"
      ],
      [
        "c",
        "a"
      ],
      [
        "c",
        "om"
      ],
      [
        "Ġf",
        "ea"
      ],
      [
        "Ġfa",
        "st"
      ],
      [
        "Ġhast",
        "e"
      ],
      [
        "s",
        "ue"
      ],
      [
        "v",
        "o"
      ],
      [
        "ĠC",
        "LA"
      ],
      [
        "Ġe",
        "mb"
      ],
      [
        "Ġsp",
        "eed"
      ],
      [
        "ast",
        "e"
      ],
      [
        "ĠED",
        "WARD"
      ],
      [
        "Ġstra",
        "ight"
      ],
      [
        "Ġvo",
        "ice"
      ],
      [
        "ĠCLA",
        "UD"
      ],
      [
        "i",
        "or"
      ],
      [
        "Ġb",
        "att"
      ],
      [
        "ĠA",
        "h"
      ],
      [
        "Ġg",
        "ro"
      ],
      [
        "Ġre",
        "d"
      ],
      [
        "Ġde",
        "v"
      ],
      [
        "Ġbos",
        "om"
      ],
      [
        "D",
        "EM"
      ],
      [
        "E",
        "O"
      ],
      [
        "M",
        "EO"
      ],
      [
        "u",
        "ous"
      ],
      [
        "ve",
        "l"
      ],
      [
        "ĠM",
        "ust"
      ],
      [
        "ĠD",
        "ES"
      ],
      [
        "Ġdo",
        "g"
      ],
      [
        "Ġgentle",
        "men"
      ],
      [
        "Ġwh",
        "ite"
      ],
      [
        "ĠRO",
        "MEO"
      ],
      [
        "DEM",
        "ONA"
      ],
      [
        "ĠDES",
        "DEMONA"
      ],
      [
        "p",
        "r"
      ],
      [
        "ad",
        "s"
      ],
      [
        "ĠL",
        "ove"
      ],
      [
        "EN",
        "IUS"
      ],
      [
        "Ġcan",
        "st"
      ],
      [
        "Ġqu",
        "estion"
      ],
      [
        "AC",
        "H"
      ],
      [
        "Ġsold",
        "ier"
      ],
      [
        "ĠMEN",
        "ENIUS"
      ],
      [
        "g",
        "es"
      ],
      [
        "p",
        "l"
      ],
      [
        "Ġd",
        "ark"
      ],
      [
        "Ġc",
        "le"
      ],
      [
        "ĠD",
        "ROM"
      ],
      [
        "Ġwor",
        "se"
      ],
      [
        "Ġtoo",
        "k"
      ],
      [
        "ĠSh",
        "ould"
      ],
      [
        "Ġent",
        "reat"
      ],
      [
        "Ġwat",
        "er"
      ],
      [
        "ĠDROM",
        "IO"
      ],
      [
        "Ġw",
        "ret"
      ],
      [
        "Ġw",
        "onder"
      ],
      [
        "ĠT",
        "it"
      ],
      [
        "ĠT",
        "ru"
      ],
      [
        "ĠC",
        "O"
      ],
      [
        "ĠP",
        "ar"
      ],
      [
        "ag",
        "ue"
      ],
      [
        "Ġfe",
        "el"
      ],
      [
        "Ġsovere",
        "ign"
      ],
      [
        "n",
        "o"
      ],
      [
        "it",
        "es"
      ],
      [
        "Ġto",
        "ward"
      ],
      [
        "ĠHe",
        "ctor"
      ],
      [
        "ĠĠĠĠĠĠĠĠ",
        "ĠĠĠĠĠĠĠĠĠĠĠ"
      ],
      [
        "eth",
        "inks"
      ],
      [
        "essen",
        "ger"
      ],
      [
        "ĠCLAUD",
        "IO"
      ],
      [
        "on",
        "es"
      ],
      [
        "it",
        "ies"
      ],
      [
        "Ġth",
        "ri"
      ],
      [
        "Ġp",
        "u"
      ],
      [
        "Ġto",
        "wn"
      ],
      [
        "ull",
        "y"
      ],
      [
        "Ġsc",
        "orn"
      ],
      [
        "Ġpre",
        "t"
      ],
      [
        "Ġserv",
        "ant"
      ],
      [
        "!",
        "âĢĶ"
      ],
      [
        "st",
        "and"
      ],
      [
        "ĠB",
        "ERO"
      ],
      [
        "Ġqu",
        "ar"
      ],
      [
        "WN",
        "E"
      ],
      [
        "ID",
        "A"
      ],
      [
        "AB",
        "EL"
      ],
      [
        "Ġsomet",
        "hing"
      ],
      [
        "ĠFR",
        "I"
      ],
      [
        "ĠSw",
        "eet"
      ],
      [
        "ĠBERO",
        "WNE"
      ],
      [
        "M",
        "A"
      ],
      [
        "T",
        "w"
      ],
      [
        "Ġ",
        "ord"
      ],
      [
        "Ġm",
        "ove"
      ],
      [
        "Ġw",
        "all"
      ],
      [
        "Ġd",
        "uty"
      ],
      [
        "ĠP",
        "ETR"
      ],
      [
        "Ġdo",
        "or"
      ],
      [
        "Ġfa",
        "vour"
      ],
      [
        "Ġkn",
        "e"
      ],
      [
        "UCH",
        "IO"
      ],
      [
        "ĠPETR",
        "UCHIO"
      ],
      [
        "t",
        "o"
      ],
      [
        "Ġc",
        "r"
      ],
      [
        "ĠO",
        "LI"
      ],
      [
        "ĠD",
        "es"
      ],
      [
        "ck",
        "s"
      ],
      [
        "Ġapp",
        "ear"
      ],
      [
        "Ġgl",
        "ad"
      ],
      [
        "Ġstre",
        "ng"
      ],
      [
        "ix",
        "t"
      ],
      [
        "g",
        "g"
      ],
      [
        "Ġw",
        "atch"
      ],
      [
        "Ġw",
        "alk"
      ],
      [
        "Ġc",
        "ity"
      ],
      [
        "Ġsp",
        "ort"
      ],
      [
        "Ġtra",
        "itor"
      ],
      [
        "Ġval",
        "iant"
      ],
      [
        "I",
        "ER"
      ],
      [
        "Ġt",
        "a"
      ],
      [
        "Ġc",
        "oward"
      ],
      [
        "Ġo",
        "w"
      ],
      [
        "ir",
        "m"
      ],
      [
        "our",
        "ish"
      ],
      [
        "ĠP",
        "ED"
      ],
      [
        "ea",
        "ch"
      ],
      [
        "row",
        "s"
      ],
      [
        "Ġpro",
        "p"
      ],
      [
        "ĠSu",
        "ch"
      ],
      [
        "Ġc",
        "reat"
      ],
      [
        "Ġh",
        "ur"
      ],
      [
        "ĠC",
        "RESS"
      ],
      [
        "Ġnot",
        "e"
      ],
      [
        "ĠO",
        "R"
      ],
      [
        "end",
        "s"
      ],
      [
        "Ġapp",
        "ro"
      ],
      [
        "ENT",
        "INE"
      ],
      [
        "ĠVAL",
        "ENTINE"
      ],
      [
        "ĠCRESS",
        "IDA"
      ],
      [
        "h",
        "ood"
      ],
      [
        "Ġu",
        "nt"
      ],
      [
        "ĠF",
        "al"
      ],
      [
        "ur",
        "s"
      ],
      [
        "Ġne",
        "eds"
      ],
      [
        "Ġpl",
        "uck"
      ],
      [
        "Ġtru",
        "mp"
      ],
      [
        "Ġjust",
        "ice"
      ],
      [
        "ABEL",
        "LA"
      ],
      [
        "T",
        "A"
      ],
      [
        "re",
        "ady"
      ],
      [
        "ĠT",
        "OB"
      ],
      [
        "ĠS",
        "e"
      ],
      [
        "ĠH",
        "OST"
      ],
      [
        "ĠPAND",
        "ARUS"
      ],
      [
        "ĠTOB",
        "Y"
      ],
      [
        "H",
        "AM"
      ],
      [
        "V",
        "OL"
      ],
      [
        "b",
        "ury"
      ],
      [
        "Ġb",
        "ad"
      ],
      [
        "Ġto",
        "day"
      ],
      [
        "Ġsp",
        "eech"
      ],
      [
        "Ġcom",
        "ing"
      ],
      [
        "IO",
        "L"
      ],
      [
        "Ġtw",
        "enty"
      ],
      [
        "ĠAt",
        "he"
      ],
      [
        "VOL",
        "IO"
      ],
      [
        "b",
        "ly"
      ],
      [
        "o",
        "f"
      ],
      [
        "Ġl",
        "ust"
      ],
      [
        "ĠT",
        "imon"
      ],
      [
        "ĠB",
        "el"
      ],
      [
        "ĠP",
        "eace"
      ],
      [
        "ri",
        "age"
      ],
      [
        "ra",
        "h"
      ],
      [
        "ING",
        "HAM"
      ],
      [
        "ĠV",
        "I"
      ],
      [
        "Ġhour",
        "s"
      ],
      [
        "Ġpresent",
        "ly"
      ],
      [
        "Ġcoun",
        "sel"
      ],
      [
        "ĠCOR",
        "IOL"
      ],
      [
        "ĠCORIOL",
        "ANUS"
      ],
      [
        "!",
        "âĢĿ"
      ],
      [
        "Ġa",
        "ction"
      ],
      [
        "le",
        "x"
      ],
      [
        "ĠN",
        "OR"
      ],
      [
        "Ġpr",
        "in"
      ],
      [
        "Ġdid",
        "st"
      ],
      [
        "pt",
        "ain"
      ],
      [
        "Ġex",
        "c"
      ],
      [
        "Ġex",
        "t"
      ],
      [
        "Ġfl",
        "esh"
      ],
      [
        "Ġhar",
        "m"
      ],
      [
        "T",
        "EUS"
      ],
      [
        "m",
        "ber"
      ],
      [
        "Ġo",
        "pp"
      ],
      [
        "Ġp",
        "ale"
      ],
      [
        "am",
        "ent"
      ],
      [
        "Ġmar",
        "ried"
      ],
      [
        "aint",
        "ed"
      ],
      [
        "Ġstand",
        "s"
      ],
      [
        "ĠRome",
        "o"
      ],
      [
        "ĠPRO",
        "TEUS"
      ],
      [
        "dd",
        "en"
      ],
      [
        "Ġmorn",
        "ing"
      ],
      [
        "d",
        "ge"
      ],
      [
        "f",
        "ter"
      ],
      [
        "Ġm",
        "od"
      ],
      [
        "ĠA",
        "gainst"
      ],
      [
        "Ġlo",
        "ss"
      ],
      [
        "li",
        "ver"
      ],
      [
        "Ġgu",
        "ard"
      ],
      [
        "Ġspo",
        "ke"
      ],
      [
        "a",
        "id"
      ],
      [
        "in",
        "al"
      ],
      [
        "re",
        "y"
      ],
      [
        "Ġu",
        "nd"
      ],
      [
        "ĠCA",
        "P"
      ],
      [
        "Ġres",
        "pect"
      ],
      [
        "Ġreven",
        "ge"
      ],
      [
        "ĠHELEN",
        "A"
      ],
      [
        "r",
        "ous"
      ],
      [
        "v",
        "ol"
      ],
      [
        "ĠP",
        "OL"
      ],
      [
        "Ġst",
        "ir"
      ],
      [
        "ĠĠĠĠ",
        "ĠĠĠ"
      ],
      [
        "fe",
        "it"
      ],
      [
        "ĠSt",
        "and"
      ],
      [
        "ĠCO",
        "UNT"
      ],
      [
        "o",
        "ly"
      ],
      [
        "Ġb",
        "ro"
      ],
      [
        "Ġd",
        "u"
      ],
      [
        "ce",
        "pt"
      ],
      [
        "ĠB",
        "UCK"
      ],
      [
        "Ġfor",
        "tun"
      ],
      [
        "ure",
        "d"
      ],
      [
        "Ġr",
        "an"
      ],
      [
        "Ġal",
        "most"
      ],
      [
        "ci",
        "us"
      ],
      [
        "Ġcl",
        "ose"
      ],
      [
        "Ġpre",
        "p"
      ],
      [
        "Ġmo",
        "on"
      ],
      [
        "Ġstreng",
        "th"
      ],
      [
        "ĠBUCK",
        "INGHAM"
      ],
      [
        "s",
        "es"
      ],
      [
        "Ġt",
        "it"
      ],
      [
        "Ġc",
        "ap"
      ],
      [
        "Ġl",
        "ack"
      ],
      [
        "Ġg",
        "rant"
      ],
      [
        "ĠJ",
        "A"
      ],
      [
        "ĠJ",
        "ul"
      ],
      [
        "Ġwit",
        "hal"
      ],
      [
        "Ġlie",
        "ge"
      ],
      [
        "Ġsold",
        "iers"
      ],
      [
        "o",
        "ll"
      ],
      [
        "Ġs",
        "igh"
      ],
      [
        "Ġe",
        "mp"
      ],
      [
        "Ġre",
        "g"
      ],
      [
        "ES",
        "AR"
      ],
      [
        "OL",
        "LES"
      ],
      [
        "ĠCA",
        "ESAR"
      ],
      [
        "Ġma",
        "jesty"
      ],
      [
        "ĠLUC",
        "IUS"
      ],
      [
        "ĠPAR",
        "OLLES"
      ],
      [
        "y",
        "ing"
      ],
      [
        "in",
        "es"
      ],
      [
        "Ġm",
        "ortal"
      ],
      [
        "Ġbe",
        "come"
      ],
      [
        "ĠH",
        "ast"
      ],
      [
        "ĠC",
        "ount"
      ],
      [
        "Ġr",
        "as"
      ],
      [
        "Ġal",
        "ready"
      ],
      [
        "Ġoff",
        "end"
      ],
      [
        "Ġtr",
        "ou"
      ],
      [
        "Ġw",
        "ild"
      ],
      [
        "ĠI",
        "S"
      ],
      [
        "en",
        "ch"
      ],
      [
        "ĠS",
        "UFF"
      ],
      [
        "ĠB",
        "l"
      ],
      [
        "ĠC",
        "ap"
      ],
      [
        "ĠE",
        "PH"
      ],
      [
        "ĠG",
        "entle"
      ],
      [
        "ES",
        "US"
      ],
      [
        "AL",
        "LO"
      ],
      [
        "ĠSH",
        "ALLO"
      ],
      [
        "Ġmur",
        "der"
      ],
      [
        "Ġexce",
        "ll"
      ],
      [
        "ĠCass",
        "io"
      ],
      [
        "ĠSUFF",
        "OLK"
      ],
      [
        "ĠEPH",
        "ESUS"
      ],
      [
        "ĠSHALLO",
        "W"
      ],
      [
        "b",
        "it"
      ],
      [
        "v",
        "ia"
      ],
      [
        "Ġl",
        "ow"
      ],
      [
        "Ġfor",
        "b"
      ],
      [
        "ĠP",
        "AL"
      ],
      [
        "Ġso",
        "ft"
      ],
      [
        "um",
        "b"
      ],
      [
        "AM",
        "ON"
      ],
      [
        "Ġwar",
        "s"
      ],
      [
        "Ġsl",
        "ain"
      ],
      [
        "Ġsen",
        "se"
      ],
      [
        "Ġfea",
        "st"
      ],
      [
        "ĠPAL",
        "AMON"
      ],
      [
        "Ġb",
        "ur"
      ],
      [
        "ve",
        "d"
      ],
      [
        "oo",
        "p"
      ],
      [
        "Ġsc",
        "ar"
      ],
      [
        "ĠCl",
        "aud"
      ],
      [
        "Ġgi",
        "ves"
      ],
      [
        "ĠCASS",
        "IUS"
      ],
      [
        "u",
        "ght"
      ],
      [
        "Ġb",
        "ond"
      ],
      [
        "Ġd",
        "ire"
      ],
      [
        "Ġh",
        "ide"
      ],
      [
        "Ġin",
        "d"
      ],
      [
        "Ġin",
        "ter"
      ],
      [
        "Ġbe",
        "ast"
      ],
      [
        "ut",
        "ion"
      ],
      [
        "Ġv",
        "ile"
      ],
      [
        "ast",
        "ard"
      ],
      [
        "Ġcon",
        "st"
      ],
      [
        "Ġsw",
        "orn"
      ],
      [
        "Ġbatt",
        "le"
      ],
      [
        "c",
        "her"
      ],
      [
        "Ġm",
        "ount"
      ],
      [
        "Ġhe",
        "ir"
      ],
      [
        "ed",
        "i"
      ],
      [
        "Ġha",
        "ving"
      ],
      [
        "ĠP",
        "om"
      ],
      [
        "Ġre",
        "ceive"
      ],
      [
        "Ġdis",
        "g"
      ],
      [
        "Ġoff",
        "ice"
      ],
      [
        "Ġbre",
        "ast"
      ],
      [
        "Ġheaven",
        "s"
      ],
      [
        "ĠTIT",
        "US"
      ],
      [
        "T",
        "R"
      ],
      [
        "i",
        "red"
      ],
      [
        "re",
        "l"
      ],
      [
        "Ġb",
        "ook"
      ],
      [
        "se",
        "t"
      ],
      [
        "ĠB",
        "E"
      ],
      [
        "al",
        "s"
      ],
      [
        "ĠE",
        "ar"
      ],
      [
        "Ġsha",
        "d"
      ],
      [
        "ci",
        "ence"
      ],
      [
        "rie",
        "f"
      ],
      [
        "ĠAttend",
        "ants"
      ],
      [
        "C",
        "US"
      ],
      [
        "D",
        "ICK"
      ],
      [
        "g",
        "ry"
      ],
      [
        "p",
        "es"
      ],
      [
        "Ġt",
        "y"
      ],
      [
        "Ġs",
        "hi"
      ],
      [
        "ĠB",
        "ENE"
      ],
      [
        "ĠP",
        "ORT"
      ],
      [
        "ĠF",
        "L"
      ],
      [
        "Ġre",
        "ady"
      ],
      [
        "ur",
        "se"
      ],
      [
        "ver",
        "n"
      ],
      [
        "ĠR",
        "os"
      ],
      [
        "Ġsu",
        "dden"
      ],
      [
        "pp",
        "ed"
      ],
      [
        "ĠBe",
        "ing"
      ],
      [
        "Ġspeak",
        "s"
      ],
      [
        "Ġwr",
        "it"
      ],
      [
        "Ġad",
        "d"
      ],
      [
        "Ġra",
        "ge"
      ],
      [
        "ĠPED",
        "RO"
      ],
      [
        "ĠBENE",
        "DICK"
      ],
      [
        "ĠPORT",
        "IA"
      ],
      [
        "O",
        "W"
      ],
      [
        "Ġ",
        "id"
      ],
      [
        "Ġf",
        "ra"
      ],
      [
        "Ġd",
        "ish"
      ],
      [
        "ĠT",
        "RO"
      ],
      [
        "ir",
        "d"
      ],
      [
        "EN",
        "CE"
      ],
      [
        "Ġpr",
        "ithee"
      ],
      [
        "Ġab",
        "ove"
      ],
      [
        "IL",
        "US"
      ],
      [
        "ĠLord",
        "s"
      ],
      [
        "Ġking",
        "dom"
      ],
      [
        "Ġbeg",
        "in"
      ],
      [
        "Ġsuff",
        "er"
      ],
      [
        "ĠKATH",
        "ER"
      ],
      [
        "ĠTRO",
        "ILUS"
      ],
      [
        "C",
        "IT"
      ],
      [
        "r",
        "on"
      ],
      [
        "Ġm",
        "ot"
      ],
      [
        "Ġw",
        "ound"
      ],
      [
        "re",
        "m"
      ],
      [
        "st",
        "aff"
      ],
      [
        "ĠH",
        "igh"
      ],
      [
        "ĠC",
        "all"
      ],
      [
        "ĠE",
        "L"
      ],
      [
        "ĠY",
        "ea"
      ],
      [
        "Ġj",
        "est"
      ],
      [
        "Ġsl",
        "ave"
      ],
      [
        "ĠAR",
        "CIT"
      ],
      [
        "Ġden",
        "y"
      ],
      [
        "ĠMa",
        "jesty"
      ],
      [
        "ĠARCIT",
        "E"
      ],
      [
        "f",
        "fect"
      ],
      [
        "h",
        "ind"
      ],
      [
        "n",
        "y"
      ],
      [
        "et",
        "ch"
      ],
      [
        "as",
        "hi"
      ],
      [
        "ard",
        "inal"
      ],
      [
        "Ġpri",
        "v"
      ],
      [
        "r",
        "ist"
      ],
      [
        "Ġb",
        "le"
      ],
      [
        "Ġc",
        "ross"
      ],
      [
        "ĠA",
        "m"
      ],
      [
        "ĠC",
        "or"
      ],
      [
        "Ġli",
        "ving"
      ],
      [
        "ĠD",
        "oth"
      ],
      [
        "Ġse",
        "ver"
      ],
      [
        "em",
        "pt"
      ],
      [
        "Ġthan",
        "ks"
      ],
      [
        "ĠQ",
        "u"
      ],
      [
        "ĠClaud",
        "io"
      ],
      [
        "n",
        "k"
      ],
      [
        "t",
        "ain"
      ],
      [
        "Ġf",
        "am"
      ],
      [
        "ĠS",
        "OL"
      ],
      [
        "ĠH",
        "ear"
      ],
      [
        "ĠC",
        "har"
      ],
      [
        "Ġre",
        "l"
      ],
      [
        "Ġtru",
        "ly"
      ],
      [
        "Ġwho",
        "le"
      ],
      [
        "AT",
        "O"
      ],
      [
        "Ġab",
        "s"
      ],
      [
        "Ġcha",
        "mber"
      ],
      [
        "Ġhonour",
        "able"
      ],
      [
        "Ġpass",
        "ion"
      ],
      [
        "be",
        "y"
      ],
      [
        "Ġchild",
        "ren"
      ],
      [
        "Ġdre",
        "ad"
      ],
      [
        "Ġstri",
        "ke"
      ],
      [
        "Ġinst",
        "ru"
      ],
      [
        "Ġpret",
        "ty"
      ],
      [
        "ĠIS",
        "ABELLA"
      ],
      [
        "I",
        "ET"
      ],
      [
        "O",
        "TH"
      ],
      [
        "Ġm",
        "ist"
      ],
      [
        "Ġp",
        "ap"
      ],
      [
        "ĠM",
        "AL"
      ],
      [
        "Ġe",
        "ither"
      ],
      [
        "Ġlo",
        "ving"
      ],
      [
        "ĠFor",
        "tune"
      ],
      [
        "ak",
        "en"
      ],
      [
        "un",
        "e"
      ],
      [
        "os",
        "ed"
      ],
      [
        "ĠSu",
        "ff"
      ],
      [
        "ĠNe",
        "ver"
      ],
      [
        "ĠJUL",
        "IET"
      ],
      [
        "s",
        "c"
      ],
      [
        "Ġ",
        "ve"
      ],
      [
        "ĠA",
        "b"
      ],
      [
        "Ġfor",
        "m"
      ],
      [
        "Ġli",
        "ber"
      ],
      [
        "Ġk",
        "ings"
      ],
      [
        "ĠK",
        "ENT"
      ],
      [
        "Ġmar",
        "riage"
      ],
      [
        "d",
        "en"
      ],
      [
        "m",
        "on"
      ],
      [
        "Ġl",
        "augh"
      ],
      [
        "Ġst",
        "ru"
      ],
      [
        "Ġst",
        "eal"
      ],
      [
        "ant",
        "age"
      ],
      [
        "res",
        "h"
      ],
      [
        "Ġcons",
        "cience"
      ],
      [
        "Ġlords",
        "hip"
      ],
      [
        "Ġspir",
        "its"
      ],
      [
        "ĠLu",
        "cius"
      ],
      [
        "Ġoft",
        "en"
      ],
      [
        "I",
        "G"
      ],
      [
        "S",
        "C"
      ],
      [
        "o",
        "ver"
      ],
      [
        "or",
        "th"
      ],
      [
        "ĠT",
        "R"
      ],
      [
        "Ġp",
        "it"
      ],
      [
        "ĠC",
        "astle"
      ],
      [
        "ĠP",
        "alace"
      ],
      [
        "il",
        "us"
      ],
      [
        "Ġcall",
        "ed"
      ],
      [
        "Ġunder",
        "stand"
      ],
      [
        "Ġseem",
        "s"
      ],
      [
        "Ġletter",
        "s"
      ],
      [
        "ĠLEON",
        "TES"
      ],
      [
        "hil",
        "st"
      ],
      [
        "ĠFal",
        "staff"
      ],
      [
        "l",
        "er"
      ],
      [
        "Ġm",
        "orrow"
      ],
      [
        "Ġb",
        "ow"
      ],
      [
        "ĠS",
        "IC"
      ],
      [
        "ĠM",
        "ac"
      ],
      [
        "ĠP",
        "IST"
      ],
      [
        "ĠD",
        "is"
      ],
      [
        "ast",
        "ers"
      ],
      [
        "art",
        "ius"
      ],
      [
        "Ġlove",
        "d"
      ],
      [
        "Ġaf",
        "fection"
      ],
      [
        "cl",
        "aim"
      ],
      [
        "und",
        "red"
      ],
      [
        "ĠPIST",
        "OL"
      ],
      [
        "f",
        "ully"
      ],
      [
        "Ġa",
        "g"
      ],
      [
        "ou",
        "red"
      ],
      [
        "Ġm",
        "al"
      ],
      [
        "Ġf",
        "ing"
      ],
      [
        "Ġf",
        "ashi"
      ],
      [
        "ĠS",
        "il"
      ],
      [
        "ĠM",
        "en"
      ],
      [
        "Ġde",
        "eds"
      ],
      [
        "ĠHe",
        "len"
      ],
      [
        "Ġgo",
        "d"
      ],
      [
        "Ġres",
        "ol"
      ],
      [
        "Y",
        "M"
      ],
      [
        "m",
        "and"
      ],
      [
        "Ġf",
        "at"
      ],
      [
        "Ġc",
        "ast"
      ],
      [
        "ĠH",
        "arry"
      ],
      [
        "Ġfor",
        "ce"
      ],
      [
        "ĠF",
        "a"
      ],
      [
        "al",
        "b"
      ],
      [
        "ĠR",
        "oman"
      ],
      [
        "um",
        "ph"
      ],
      [
        "IC",
        "LES"
      ],
      [
        "Ġany",
        "thing"
      ],
      [
        "Ġpri",
        "de"
      ],
      [
        "ĠPER",
        "ICLES"
      ],
      [
        "Y",
        "S"
      ],
      [
        "g",
        "ing"
      ],
      [
        "t",
        "ing"
      ],
      [
        "in",
        "a"
      ],
      [
        "Ġc",
        "ase"
      ],
      [
        "Ġl",
        "im"
      ],
      [
        "ĠT",
        "y"
      ],
      [
        "Ġh",
        "undred"
      ],
      [
        "ing",
        "ham"
      ],
      [
        "Ġg",
        "ot"
      ],
      [
        "Ġbe",
        "hind"
      ],
      [
        "ĠC",
        "le"
      ],
      [
        "Ġwould",
        "st"
      ],
      [
        "IO",
        "LA"
      ],
      [
        "ĠV",
        "en"
      ],
      [
        "ĠV",
        "IOLA"
      ],
      [
        "Ġla",
        "bour"
      ],
      [
        "Ġch",
        "ur"
      ],
      [
        "Ġsec",
        "ond"
      ],
      [
        "atis",
        "f"
      ],
      [
        "Ġfortun",
        "es"
      ],
      [
        "T",
        "US"
      ],
      [
        "Ġt",
        "ent"
      ],
      [
        "Ġs",
        "er"
      ],
      [
        "Ġw",
        "ood"
      ],
      [
        "Ġp",
        "ost"
      ],
      [
        "ĠS",
        "EN"
      ],
      [
        "ĠF",
        "ri"
      ],
      [
        "ra",
        "w"
      ],
      [
        "AN",
        "S"
      ],
      [
        "ES",
        "EUS"
      ],
      [
        "ation",
        "s"
      ],
      [
        "ĠAN",
        "G"
      ],
      [
        "ĠTH",
        "ESEUS"
      ],
      [
        "Ġstre",
        "et"
      ],
      [
        "ĠLEON",
        "ATO"
      ],
      [
        "LAND",
        "O"
      ],
      [
        "ĠOR",
        "LANDO"
      ],
      [
        "n",
        "ight"
      ],
      [
        "Ġs",
        "ho"
      ],
      [
        "Ġb",
        "it"
      ],
      [
        "Ġc",
        "ru"
      ],
      [
        "ar",
        "um"
      ],
      [
        "an",
        "cy"
      ],
      [
        "ĠB",
        "uck"
      ],
      [
        "Ġe",
        "ffect"
      ],
      [
        "ĠP",
        "H"
      ],
      [
        "fe",
        "re"
      ],
      [
        "um",
        "ent"
      ],
      [
        "Ġpo",
        "ison"
      ],
      [
        "Ġwit",
        "ness"
      ],
      [
        "Ġsoul",
        "s"
      ],
      [
        "Ġche",
        "er"
      ],
      [
        "Ġsec",
        "ret"
      ],
      [
        "Ġposs",
        "ess"
      ],
      [
        "Ġac",
        "qu"
      ],
      [
        "A",
        "U"
      ],
      [
        "I",
        "P"
      ],
      [
        "M",
        "OG"
      ],
      [
        "_",
        ","
      ],
      [
        "Ġs",
        "im"
      ],
      [
        "ĠI",
        "MOG"
      ],
      [
        "Ġf",
        "ill"
      ],
      [
        "ĠS",
        "PE"
      ],
      [
        "Ġe",
        "as"
      ],
      [
        "Ġde",
        "liver"
      ],
      [
        "ie",
        "w"
      ],
      [
        "are",
        "nce"
      ],
      [
        "Ġoff",
        "ence"
      ],
      [
        "Ġtre",
        "ason"
      ],
      [
        "Ġlad",
        "ies"
      ],
      [
        "ĠOLI",
        "VIA"
      ],
      [
        "Ġhur",
        "t"
      ],
      [
        "ĠIMOG",
        "EN"
      ],
      [
        "on",
        "a"
      ],
      [
        "en",
        "ge"
      ],
      [
        "an",
        "c"
      ],
      [
        "ĠS",
        "T"
      ],
      [
        "ĠH",
        "OR"
      ],
      [
        "ĠE",
        "N"
      ],
      [
        "ĠE",
        "m"
      ],
      [
        "Ġre",
        "b"
      ],
      [
        "ER",
        "N"
      ],
      [
        "Ġex",
        "ec"
      ],
      [
        "Ġpart",
        "s"
      ],
      [
        "Ġad",
        "m"
      ],
      [
        "Ġhead",
        "s"
      ],
      [
        "Ġchan",
        "ce"
      ],
      [
        "ĠSuff",
        "olk"
      ],
      [
        "ĠSIC",
        "INIUS"
      ],
      [
        "ĠSPE",
        "ED"
      ],
      [
        "e",
        "ep"
      ],
      [
        "Ġ",
        "ut"
      ],
      [
        "Ġm",
        "ir"
      ],
      [
        "Ġf",
        "ive"
      ],
      [
        "Ġd",
        "ied"
      ],
      [
        "Ġo",
        "p"
      ],
      [
        "Ġh",
        "ost"
      ],
      [
        "Ġcon",
        "qu"
      ],
      [
        "Ġoff",
        "er"
      ],
      [
        "bl",
        "ed"
      ],
      [
        "ĠCl",
        "arence"
      ],
      [
        "Ġenem",
        "ies"
      ],
      [
        "ĠTro",
        "y"
      ],
      [
        "ĠTro",
        "ilus"
      ],
      [
        "ĠServ",
        "ant"
      ],
      [
        "ĠCh",
        "rist"
      ],
      [
        "ĠAthe",
        "ns"
      ],
      [
        "ĠPom",
        "pe"
      ],
      [
        "i",
        "ol"
      ],
      [
        "k",
        "ing"
      ],
      [
        "Ġt",
        "ale"
      ],
      [
        "Ġt",
        "each"
      ],
      [
        "is",
        "es"
      ],
      [
        "it",
        "ed"
      ],
      [
        "Ġp",
        "ain"
      ],
      [
        "Ġg",
        "ift"
      ],
      [
        "ĠS",
        "ign"
      ],
      [
        "ĠG",
        "U"
      ],
      [
        "AN",
        "CE"
      ],
      [
        "ie",
        "u"
      ],
      [
        "EL",
        "O"
      ],
      [
        "Ġmight",
        "y"
      ],
      [
        "Ġlong",
        "er"
      ],
      [
        "ĠLu",
        "c"
      ],
      [
        "ĠPRO",
        "SP"
      ],
      [
        "ĠCH",
        "AR"
      ],
      [
        "ĠBO",
        "Y"
      ],
      [
        "ĠPar",
        "is"
      ],
      [
        "Ġfashi",
        "on"
      ],
      [
        "ĠANG",
        "ELO"
      ],
      [
        "ĠPROSP",
        "ERO"
      ],
      [
        "B",
        "US"
      ],
      [
        "g",
        "ers"
      ],
      [
        "u",
        "b"
      ],
      [
        "u",
        "ri"
      ],
      [
        "Ġd",
        "rown"
      ],
      [
        "ĠH",
        "ea"
      ],
      [
        "Ġis",
        "sue"
      ],
      [
        "AR",
        "BUS"
      ],
      [
        "Ġv",
        "ow"
      ],
      [
        "Ġal",
        "ong"
      ],
      [
        "Ġper",
        "ceive"
      ],
      [
        "ĠAL",
        "L"
      ],
      [
        "ĠBuck",
        "ingham"
      ],
      [
        ".",
        "âĢĻ"
      ],
      [
        "p",
        "her"
      ],
      [
        "en",
        "ed"
      ],
      [
        "Ġhe",
        "alth"
      ],
      [
        "ĠS",
        "al"
      ],
      [
        "Ġre",
        "vere"
      ],
      [
        "Ġli",
        "on"
      ],
      [
        "Ġlo",
        "v"
      ],
      [
        "ĠBe",
        "cause"
      ],
      [
        "Ġshow",
        "s"
      ],
      [
        "OB",
        "ARBUS"
      ],
      [
        "Ġexcell",
        "ent"
      ],
      [
        "ĠEN",
        "OBARBUS"
      ],
      [
        "ĠPompe",
        "y"
      ],
      [
        "E",
        "PH"
      ],
      [
        "c",
        "us"
      ],
      [
        "Ġa",
        "p"
      ],
      [
        "Ġd",
        "in"
      ],
      [
        "ed",
        "ing"
      ],
      [
        "Ġbe",
        "ard"
      ],
      [
        "ĠO",
        "ff"
      ],
      [
        "id",
        "er"
      ],
      [
        "ĠK",
        "now"
      ],
[...]
